{
  "version": "1.0",
  "truncation": null,
  "padding": null,
  "added_tokens": [
    {
      "id": 0,
      "content": "<s>",
      "single_word": false,
      "lstrip": false,
      "rstrip": false,
      "normalized": false,
      "special": true
    },
    {
      "id": 1,
      "content": "<pad>",
      "single_word": false,
      "lstrip": false,
      "rstrip": false,
      "normalized": false,
      "special": true
    },
    {
      "id": 2,
      "content": "</s>",
      "single_word": false,
      "lstrip": false,
      "rstrip": false,
      "normalized": false,
      "special": true
    },
    {
      "id": 3,
      "content": "<unk>",
      "single_word": false,
      "lstrip": false,
      "rstrip": false,
      "normalized": false,
      "special": true
    },
    {
      "id": 4,
      "content": "<mask>",
      "single_word": false,
      "lstrip": false,
      "rstrip": false,
      "normalized": false,
      "special": true
    }
  ],
  "normalizer": null,
  "pre_tokenizer": {
    "type": "ByteLevel",
    "add_prefix_space": false,
    "trim_offsets": true,
    "use_regex": true
  },
  "post_processor": {
    "type": "ByteLevel",
    "add_prefix_space": true,
    "trim_offsets": false,
    "use_regex": true
  },
  "decoder": {
    "type": "ByteLevel",
    "add_prefix_space": true,
    "trim_offsets": true,
    "use_regex": true
  },
  "model": {
    "type": "BPE",
    "dropout": null,
    "unk_token": null,
    "continuing_subword_prefix": null,
    "end_of_word_suffix": null,
    "fuse_unk": false,
    "byte_fallback": false,
    "ignore_merges": false,
    "vocab": {
      "<s>": 0,
      "<pad>": 1,
      "</s>": 2,
      "<unk>": 3,
      "<mask>": 4,
      "!": 5,
      "\"": 6,
      "#": 7,
      "$": 8,
      "%": 9,
      "&": 10,
      "'": 11,
      "(": 12,
      ")": 13,
      "*": 14,
      "+": 15,
      ",": 16,
      "-": 17,
      ".": 18,
      "/": 19,
      "0": 20,
      "1": 21,
      "2": 22,
      "3": 23,
      "4": 24,
      "5": 25,
      "6": 26,
      "7": 27,
      "8": 28,
      "9": 29,
      ":": 30,
      ";": 31,
      "<": 32,
      "=": 33,
      ">": 34,
      "?": 35,
      "@": 36,
      "A": 37,
      "B": 38,
      "C": 39,
      "D": 40,
      "E": 41,
      "F": 42,
      "G": 43,
      "H": 44,
      "I": 45,
      "J": 46,
      "K": 47,
      "L": 48,
      "M": 49,
      "N": 50,
      "O": 51,
      "P": 52,
      "Q": 53,
      "R": 54,
      "S": 55,
      "T": 56,
      "U": 57,
      "V": 58,
      "W": 59,
      "X": 60,
      "Y": 61,
      "Z": 62,
      "[": 63,
      "\\": 64,
      "]": 65,
      "^": 66,
      "_": 67,
      "`": 68,
      "a": 69,
      "b": 70,
      "c": 71,
      "d": 72,
      "e": 73,
      "f": 74,
      "g": 75,
      "h": 76,
      "i": 77,
      "j": 78,
      "k": 79,
      "l": 80,
      "m": 81,
      "n": 82,
      "o": 83,
      "p": 84,
      "q": 85,
      "r": 86,
      "s": 87,
      "t": 88,
      "u": 89,
      "v": 90,
      "w": 91,
      "x": 92,
      "y": 93,
      "z": 94,
      "{": 95,
      "|": 96,
      "}": 97,
      "~": 98,
      "¡": 99,
      "¢": 100,
      "£": 101,
      "¤": 102,
      "¥": 103,
      "¦": 104,
      "§": 105,
      "¨": 106,
      "©": 107,
      "ª": 108,
      "«": 109,
      "¬": 110,
      "®": 111,
      "¯": 112,
      "°": 113,
      "±": 114,
      "²": 115,
      "³": 116,
      "´": 117,
      "µ": 118,
      "¶": 119,
      "·": 120,
      "¸": 121,
      "¹": 122,
      "º": 123,
      "»": 124,
      "¼": 125,
      "½": 126,
      "¾": 127,
      "¿": 128,
      "À": 129,
      "Á": 130,
      "Â": 131,
      "Ã": 132,
      "Ä": 133,
      "Å": 134,
      "Æ": 135,
      "Ç": 136,
      "È": 137,
      "É": 138,
      "Ê": 139,
      "Ë": 140,
      "Ì": 141,
      "Í": 142,
      "Î": 143,
      "Ï": 144,
      "Ð": 145,
      "Ñ": 146,
      "Ò": 147,
      "Ó": 148,
      "Ô": 149,
      "Õ": 150,
      "Ö": 151,
      "×": 152,
      "Ø": 153,
      "Ù": 154,
      "Ú": 155,
      "Û": 156,
      "Ü": 157,
      "Ý": 158,
      "Þ": 159,
      "ß": 160,
      "à": 161,
      "á": 162,
      "â": 163,
      "ã": 164,
      "ä": 165,
      "å": 166,
      "æ": 167,
      "ç": 168,
      "è": 169,
      "é": 170,
      "ê": 171,
      "ë": 172,
      "ì": 173,
      "í": 174,
      "î": 175,
      "ï": 176,
      "ð": 177,
      "ñ": 178,
      "ò": 179,
      "ó": 180,
      "ô": 181,
      "õ": 182,
      "ö": 183,
      "÷": 184,
      "ø": 185,
      "ù": 186,
      "ú": 187,
      "û": 188,
      "ü": 189,
      "ý": 190,
      "þ": 191,
      "ÿ": 192,
      "Ā": 193,
      "ā": 194,
      "Ă": 195,
      "ă": 196,
      "Ą": 197,
      "ą": 198,
      "Ć": 199,
      "ć": 200,
      "Ĉ": 201,
      "ĉ": 202,
      "Ċ": 203,
      "ċ": 204,
      "Č": 205,
      "č": 206,
      "Ď": 207,
      "ď": 208,
      "Đ": 209,
      "đ": 210,
      "Ē": 211,
      "ē": 212,
      "Ĕ": 213,
      "ĕ": 214,
      "Ė": 215,
      "ė": 216,
      "Ę": 217,
      "ę": 218,
      "Ě": 219,
      "ě": 220,
      "Ĝ": 221,
      "ĝ": 222,
      "Ğ": 223,
      "ğ": 224,
      "Ġ": 225,
      "ġ": 226,
      "Ģ": 227,
      "ģ": 228,
      "Ĥ": 229,
      "ĥ": 230,
      "Ħ": 231,
      "ħ": 232,
      "Ĩ": 233,
      "ĩ": 234,
      "Ī": 235,
      "ī": 236,
      "Ĭ": 237,
      "ĭ": 238,
      "Į": 239,
      "į": 240,
      "İ": 241,
      "ı": 242,
      "Ĳ": 243,
      "ĳ": 244,
      "Ĵ": 245,
      "ĵ": 246,
      "Ķ": 247,
      "ķ": 248,
      "ĸ": 249,
      "Ĺ": 250,
      "ĺ": 251,
      "Ļ": 252,
      "ļ": 253,
      "Ľ": 254,
      "ľ": 255,
      "Ŀ": 256,
      "ŀ": 257,
      "Ł": 258,
      "ł": 259,
      "Ń": 260,
      "Ġt": 261,
      "he": 262,
      "Ġa": 263,
      "čĊ": 264,
      "Ġthe": 265,
      "in": 266,
      "Ġo": 267,
      "Ġw": 268,
      "re": 269,
      "nd": 270,
      "Ġs": 271,
      "at": 272,
      "is": 273,
      "er": 274,
      "Ġb": 275,
      "Ġof": 276,
      "ou": 277,
      "Ġand": 278,
      "Ġm": 279,
      "es": 280,
      "on": 281,
      "Ġth": 282,
      "Ġto": 283,
      "en": 284,
      "ing": 285,
      "Ġh": 286,
      "ll": 287,
      "Ġc": 288,
      "no": 289,
      "an": 290,
      "Ġf": 291,
      "Ġin": 292,
      "Ġp": 293,
      "ed": 294,
      "it": 295,
      "Ġwh": 296,
      "or": 297,
      "Ġbe": 298,
      "Ġd": 299,
      "ic": 300,
      "ar": 301,
      "le": 302,
      "Ġis": 303,
      "as": 304,
      "Ġno": 305,
      "the": 306,
      "us": 307,
      "ion": 308,
      "Ġy": 309,
      "om": 310,
      "Ġthat": 311,
      "Ġe": 312,
      "ve": 313,
      "ut": 314,
      "Ġyou": 315,
      "ĠI": 316,
      "Ġhe": 317,
      "ay": 318,
      "ly": 319,
      "Ġg": 320,
      "se": 321,
      "ich": 322,
      "Ġnot": 323,
      "Ġl": 324,
      "im": 325,
      "Ġwe": 326,
      "Ġwhich": 327,
      "RA": 328,
      "ES": 329,
      "Ġor": 330,
      "ld": 331,
      "Ġha": 332,
      "ce": 333,
      "al": 334,
      "Ġas": 335,
      "ir": 336,
      "Ġare": 337,
      "Ġre": 338,
      "if": 339,
      "ther": 340,
      "Ġon": 341,
      "ent": 342,
      "th": 343,
      "od": 344,
      "Ġan": 345,
      "ver": 346,
      "RAT": 347,
      "CRAT": 348,
      "ĠA": 349,
      "OCRAT": 350,
      "OCRATES": 351,
      "SOCRATES": 352,
      "st": 353,
      "Ġn": 354,
      "gh": 355,
      "ain": 356,
      "ĠT": 357,
      "ill": 358,
      "all": 359,
      "ct": 360,
      "id": 361,
      "ow": 362,
      "Ġfor": 363,
      "ould": 364,
      "Ġhave": 365,
      "am": 366,
      "Ġthem": 367,
      "Ġthey": 368,
      "ur": 369,
      "Ġwho": 370,
      "Ġsh": 371,
      "ter": 372,
      "ri": 373,
      "ure": 374,
      "ght": 375,
      "ith": 376,
      "ak": 377,
      "Ġu": 378,
      "ro": 379,
      "ĠAnd": 380,
      "et": 381,
      "Ġby": 382,
      "Ġme": 383,
      "Ġall": 384,
      "ch": 385,
      "ess": 386,
      "hen": 387,
      "ru": 388,
      "Ġwill": 389,
      "IA": 390,
      "Ġwith": 391,
      "Ġdo": 392,
      "Ġif": 393,
      "Ġk": 394,
      "Ġman": 395,
      "Ġsu": 396,
      "pe": 397,
      "US": 398,
      "and": 399,
      "Ġbut": 400,
      "ad": 401,
      "ust": 402,
      "est": 403,
      "Ġone": 404,
      "HE": 405,
      "ation": 406,
      "Ġmo": 407,
      "ge": 408,
      "qu": 409,
      "il": 410,
      "Ġthis": 411,
      "Ġother": 412,
      "ble": 413,
      "Ġsay": 414,
      "Ġgo": 415,
      "Ġwhat": 416,
      "po": 417,
      "Ġat": 418,
      "Ġst": 419,
      "Ġse": 420,
      "Ġany": 421,
      "our": 422,
      "Ġle": 423,
      "Ġcon": 424,
      "Ġex": 425,
      "ET": 426,
      "THE": 427,
      "Ġthere": 428,
      "Ġde": 429,
      "Ġhim": 430,
      "now": 431,
      "Ġhis": 432,
      "iv": 433,
      "Ġus": 434,
      "ame": 435,
      "ul": 436,
      "ome": 437,
      "her": 438,
      "to": 439,
      "Ġal": 440,
      "NIA": 441,
      "ĠS": 442,
      "em": 443,
      "Ġar": 444,
      "Ġv": 445,
      "rom": 446,
      "ĠW": 447,
      "ist": 448,
      "Ġhas": 449,
      "Ġtheir": 450,
      "ind": 451,
      "ate": 452,
      "Ġwas": 453,
      "ĠThe": 454,
      "Ġli": 455,
      "Ġwhen": 456,
      "Ġwould": 457,
      "ers": 458,
      "out": 459,
      "Ġknow": 460,
      "Ġmay": 461,
      "ment": 462,
      "Ġfrom": 463,
      "reat": 464,
      "tain": 465,
      "NG": 466,
      "ings": 467,
      "Ġne": 468,
      "ity": 469,
      "Ġpro": 470,
      "ol": 471,
      "Ġwor": 472,
      "ra": 473,
      "Ġab": 474,
      "ig": 475,
      "ke": 476,
      "sel": 477,
      "rat": 478,
      "Ġun": 479,
      "are": 480,
      "Ġcan": 481,
      "rue": 482,
      "ant": 483,
      "Ġgood": 484,
      "art": 485,
      "--": 486,
      "Ġshall": 487,
      "Ġit": 488,
      "ous": 489,
      "Ġcom": 490,
      "âĢ": 491,
      "ĠY": 492,
      "ire": 493,
      "ĠC": 494,
      "ell": 495,
      "Ġdis": 496,
      "Ġim": 497,
      "ĠB": 498,
      "ard": 499,
      "ac": 500,
      "ĠH": 501,
      "very": 502,
      "Ġj": 503,
      "Ġshould": 504,
      "of": 505,
      "ake": 506,
      "ive": 507,
      "Ġwere": 508,
      "hat": 509,
      "fe": 510,
      "Ġag": 511,
      "ort": 512,
      "aw": 513,
      "Ġmy": 514,
      "ore": 515,
      "Ġch": 516,
      "Ġour": 517,
      "ong": 518,
      "ss": 519,
      "so": 520,
      "ER": 521,
      "ci": 522,
      "pl": 523,
      "Ġam": 524,
      "Ġso": 525,
      "un": 526,
      "ence": 527,
      "Ġonly": 528,
      "CL": 529,
      "ST": 530,
      "ĠBut": 531,
      "RANG": 532,
      "STRANG": 533,
      "STRANGER": 534,
      "be": 535,
      "Ġsome": 536,
      "um": 537,
      "Ġlike": 538,
      "Ġabout": 539,
      "able": 540,
      "AET": 541,
      "ertain": 542,
      "ETUS": 543,
      "THEAET": 544,
      "THEAETETUS": 545,
      "ions": 546,
      "Ġthen": 547,
      "ine": 548,
      "Ġpo": 549,
      "ink": 550,
      "ppo": 551,
      "Ġac": 552,
      "oc": 553,
      "Ġlet": 554,
      "ies": 555,
      "end": 556,
      "Ġsame": 557,
      "Ġnat": 558,
      "Ġmore": 559,
      "per": 560,
      "Ġtrue": 561,
      "Ġgreat": 562,
      "Ġyour": 563,
      "Ġmean": 564,
      "Ġthings": 565,
      "Ġlaw": 566,
      "ĠYes": 567,
      "ose": 568,
      "Ġbeen": 569,
      "ian": 570,
      "Ġthese": 571,
      "rates": 572,
      "Ġthan": 573,
      "ag": 574,
      "Ġspe": 575,
      "Ġr": 576,
      "Ġpart": 577,
      "Ġtr": 578,
      "leas": 579,
      "Ġmust": 580,
      "THENIA": 581,
      "THENIAN": 582,
      "ATHENIAN": 583,
      "Ġpre": 584,
      "nother": 585,
      "Ġmen": 586,
      "self": 587,
      "ren": 588,
      "Ġwhe": 589,
      "Ġup": 590,
      "Ġqu": 591,
      "Ġart": 592,
      "ight": 593,
      "ĠP": 594,
      "wh": 595,
      "Ġad": 596,
      "ass": 597,
      "ie": 598,
      "Ġnow": 599,
      "ice": 600,
      "fore": 601,
      "pt": 602,
      "Ġpl": 603,
      "Ġsou": 604,
      "ĠG": 605,
      "red": 606,
      "av": 607,
      "ocrates": 608,
      "ite": 609,
      "aus": 610,
      "ither": 611,
      "EI": 612,
      "NIAS": 613,
      "CLEI": 614,
      "CLEINIAS": 615,
      "Ġanother": 616,
      "irst": 617,
      "Ġtw": 618,
      "nder": 619,
      "ree": 620,
      "Ġev": 621,
      "right": 622,
      "ĠSocrates": 623,
      "AL": 624,
      "Ġthink": 625,
      "led": 626,
      "one": 627,
      "Ġinto": 628,
      "ue": 629,
      "ple": 630,
      "ang": 631,
      "ertainly": 632,
      "not": 633,
      "ĠN": 634,
      "ise": 635,
      "Ġnature": 636,
      "ough": 637,
      "pp": 638,
      "ance": 639,
      "Ġsuch": 640,
      "Ġhad": 641,
      "Ġbec": 642,
      "Ġpleas": 643,
      "Ġjust": 644,
      "aid": 645,
      "Ġ(": 646,
      "Ġalso": 647,
      "ally": 648,
      "Ġout": 649,
      "ord": 650,
      "Ġlo": 651,
      "Ġsoul": 652,
      "ud": 653,
      "Ġper": 654,
      "way": 655,
      "thing": 656,
      "Ġfirst": 657,
      "Ġthose": 658,
      "RO": 659,
      "Ġway": 660,
      "tr": 661,
      "Ġdes": 662,
      "CH": 663,
      "ace": 664,
      "age": 665,
      "ught": 666,
      "Ġaf": 667,
      "ĠO": 668,
      "Ġen": 669,
      "ave": 670,
      "Ġmany": 671,
      "Ġpr": 672,
      "les": 673,
      "Ġtim": 674,
      "Ġbod": 675,
      "ause": 676,
      "Ġtwo": 677,
      "ound": 678,
      "Ġagain": 679,
      "ty": 680,
      "Ġright": 681,
      "Ġcall": 682,
      "ast": 683,
      "Ġbeing": 684,
      "ĠF": 685,
      "ĠGod": 686,
      "ĠThen": 687,
      "âĢĶ": 688,
      "we": 689,
      "ness": 690,
      "Ġbet": 691,
      "lat": 692,
      "Ġacc": 693,
      "pre": 694,
      "wn": 695,
      "ish": 696,
      "Ġwhether": 697,
      "ves": 698,
      "ide": 699,
      "ens": 700,
      "Ġspeak": 701,
      "Ġhow": 702,
      "Ġdif": 703,
      "oun": 704,
      "Ġword": 705,
      "Ġbo": 706,
      "ving": 707,
      "ars": 708,
      "ledge": 709,
      "uth": 710,
      "ect": 711,
      "Ġsaid": 712,
      "ade": 713,
      "ĠWhat": 714,
      "ab": 715,
      "that": 716,
      "CHUS": 717,
      "ĠCertainly": 718,
      "ĠL": 719,
      "Ġown": 720,
      "Ġfo": 721,
      "ĠM": 722,
      "ious": 723,
      "Ġunder": 724,
      "AR": 725,
      "PRO": 726,
      "TAR": 727,
      "PROTAR": 728,
      "PROTARCHUS": 729,
      "ach": 730,
      "Ġfe": 731,
      "ap": 732,
      "Ġsee": 733,
      "fer": 734,
      "which": 735,
      "Ġmost": 736,
      "co": 737,
      "EN": 738,
      "BIA": 739,
      "CI": 740,
      "DES": 741,
      "ALCI": 742,
      "ĠFor": 743,
      "BIADES": 744,
      "ALCIBIADES": 745,
      "Ġought": 746,
      "ot": 747,
      "Ġform": 748,
      "ason": 749,
      "ber": 750,
      "atter": 751,
      "Ġrem": 752,
      "pin": 753,
      "Ġvery": 754,
      "act": 755,
      "ph": 756,
      "riend": 757,
      "ife": 758,
      "Ġtime": 759,
      "Ġevery": 760,
      "Ġdiv": 761,
      "for": 762,
      "Ġpers": 763,
      "Ġmake": 764,
      "Ġap": 765,
      "ase": 766,
      "Ġcons": 767,
      "Ġpleasure": 768,
      "ful": 769,
      "Ġord": 770,
      "ible": 771,
      "ener": 772,
      "ition": 773,
      "Ġmind": 774,
      "Ġcl": 775,
      "ought": 776,
      "ted": 777,
      "ved": 778,
      "Ġob": 779,
      "Ġfriend": 780,
      "ppos": 781,
      "Ġbody": 782,
      "ily": 783,
      "uch": 784,
      "ction": 785,
      "ary": 786,
      "Ġask": 787,
      "ces": 788,
      "ild": 789,
      "Ġevil": 790,
      "con": 791,
      "cess": 792,
      "Ġwell": 793,
      "Ġreason": 794,
      "Ġname": 795,
      "Ġopin": 796,
      "ians": 797,
      "sw": 798,
      "ower": 799,
      "feren": 800,
      "Ġcour": 801,
      "Ġknowledge": 802,
      "Ġsort": 803,
      "Ġbetter": 804,
      "OU": 805,
      "YOU": 806,
      "ĠSOCRATES": 807,
      "Ġstate": 808,
      "YOUNG": 809,
      "Ġmade": 810,
      "Ġlife": 811,
      "Ġru": 812,
      "Ġkind": 813,
      "irt": 814,
      "ex": 815,
      "ated": 816,
      "Ġind": 817,
      "Ġdoes": 818,
      "fic": 819,
      "less": 820,
      "Ġeither": 821,
      "gu": 822,
      "ser": 823,
      "sh": 824,
      "ments": 825,
      "ery": 826,
      "iz": 827,
      "cl": 828,
      "ĠE": 829,
      "Ġco": 830,
      "fect": 831,
      "LUS": 832,
      "ner": 833,
      "ways": 834,
      "uc": 835,
      "Ġimp": 836,
      "als": 837,
      "Ġbel": 838,
      "Ġcomm": 839,
      "Ġtell": 840,
      "swer": 841,
      "Ġ'": 842,
      "hy": 843,
      "Ġwhole": 844,
      "Ġplace": 845,
      "Ġboth": 846,
      "ĠHe": 847,
      "Ġappe": 848,
      "Ġwr": 849,
      "Ġgener": 850,
      "Ġsaying": 851,
      "selves": 852,
      "Ġopinion": 853,
      "ject": 854,
      "Ġcannot": 855,
      "ĠD": 856,
      "ors": 857,
      "ias": 858,
      "Ġyet": 859,
      "Ġposs": 860,
      "el": 861,
      "Ġuse": 862,
      "irtue": 863,
      "llow": 864,
      "Ġbecause": 865,
      "int": 866,
      "Ġgiv": 867,
      "Ġhaving": 868,
      "Ġtruth": 869,
      "ĠV": 870,
      "Ġothers": 871,
      "Ġorder": 872,
      "Ġthing": 873,
      "Ġint": 874,
      "ning": 875,
      "ations": 876,
      "Ġear": 877,
      "ppose": 878,
      "hed": 879,
      "ever": 880,
      "Ġnever": 881,
      "Ġmatter": 882,
      "com": 883,
      "ood": 884,
      "Ġnor": 885,
      "ider": 886,
      "Ġover": 887,
      "Ġbeg": 888,
      "Ġtake": 889,
      "Ġupon": 890,
      "Ġwhom": 891,
      "ĠVery": 892,
      "tion": 893,
      "Ġanswer": 894,
      "Ġquest": 895,
      "Ġhimself": 896,
      "ile": 897,
      "Ġpower": 898,
      "Ġalways": 899,
      "gis": 900,
      "here": 901,
      "Ġher": 902,
      "Ġcont": 903,
      "sent": 904,
      "Ġvirtue": 905,
      "but": 906,
      "pos": 907,
      "Ġcalled": 908,
      "Ġfar": 909,
      "Ġgive": 910,
      "Ġlaws": 911,
      "Ġcity": 912,
      "Ġbr": 913,
      "man": 914,
      "Ġpain": 915,
      "cept": 916,
      "mo": 917,
      "Ġperson": 918,
      "ĠThat": 919,
      "own": 920,
      "mit": 921,
      "Ġho": 922,
      "Ġreg": 923,
      "Ġwords": 924,
      "ĠTrue": 925,
      "Ġbest": 926,
      "Ġtoo": 927,
      "ates": 928,
      "Ġmight": 929,
      "ĠThere": 930,
      "Ġclass": 931,
      "PH": 932,
      "just": 933,
      "Ġinst": 934,
      "iver": 935,
      "Ġafter": 936,
      "bl": 937,
      "Ġmak": 938,
      "Ġend": 939,
      "Ġworld": 940,
      "IAS": 941,
      "Ġsub": 942,
      "Ġfollow": 943,
      "Ġcit": 944,
      "Ġnum": 945,
      "ry": 946,
      "Ġres": 947,
      "urn": 948,
      "Ġwis": 949,
      "ne": 950,
      "Ġaccord": 951,
      "Ġthr": 952,
      "lear": 953,
      "ult": 954,
      "Ġdid": 955,
      "ceed": 956,
      "Ġatt": 957,
      "Ġargu": 958,
      "Ġtherefore": 959,
      "Ġsl": 960,
      "Ġchild": 961,
      "onour": 962,
      "them": 963,
      "Ġnam": 964,
      "Ġcomp": 965,
      "Ġele": 966,
      "Ġgu": 967,
      "Ġjud": 968,
      "ten": 969,
      "Ġmanner": 970,
      "pect": 971,
      "Ġdisc": 972,
      "Ġdifferen": 973,
      "know": 974,
      "you": 975,
      "Ġconsider": 976,
      "Ġwant": 977,
      "RM": 978,
      "Ġwithout": 979,
      "HERM": 980,
      "OG": 981,
      "inci": 982,
      "Ġfa": 983,
      "stand": 984,
      "Ġever": 985,
      "anger": 986,
      "ENES": 987,
      "HERMOG": 988,
      "HERMOGENES": 989,
      "tor": 990,
      "Ġlegis": 991,
      "ĠGods": 992,
      "tle": 993,
      "ĠYou": 994,
      "hes": 995,
      "arm": 996,
      "Ġstr": 997,
      "ĠLet": 998,
      "Ġbefore": 999,
      "ip": 1000,
      "Ġable": 1001,
      "Ġdist": 1002,
      "Ġgod": 1003,
      "Ġsure": 1004,
      "Ġanything": 1005,
      "Ġsim": 1006,
      "Ġass": 1007,
      "Ġquestion": 1008,
      "RUS": 1009,
      "Ġeach": 1010,
      "ters": 1011,
      "Ġgr": 1012,
      "ep": 1013,
      "ts": 1014,
      "ater": 1015,
      "Ġcase": 1016,
      "nor": 1017,
      "iew": 1018,
      "Ġearth": 1019,
      "ĠIn": 1020,
      "Ġrest": 1021,
      "Ġsuppose": 1022,
      "os": 1023,
      "Ġact": 1024,
      "alth": 1025,
      "fin": 1026,
      "ied": 1027,
      "Ġpass": 1028,
      "Ġseem": 1029,
      "Ġcould": 1030,
      "Ġcoun": 1031,
      "Ġdesire": 1032,
      "ting": 1033,
      "ath": 1034,
      "Ġpur": 1035,
      "li": 1036,
      "Ġexist": 1037,
      "su": 1038,
      "ward": 1039,
      "quire": 1040,
      "dom": 1041,
      "ok": 1042,
      "Ġmuch": 1043,
      "his": 1044,
      "Ġequ": 1045,
      "rather": 1046,
      "ceiv": 1047,
      "alse": 1048,
      "then": 1049,
      "Ġsp": 1050,
      "Ġthought": 1051,
      "Ġcome": 1052,
      "they": 1053,
      "Ġstill": 1054,
      "Ġaccording": 1055,
      "ix": 1056,
      "Ġless": 1057,
      "press": 1058,
      "Ġnames": 1059,
      "ather": 1060,
      "Ġpra": 1061,
      "hing": 1062,
      "pro": 1063,
      "ical": 1064,
      "Ġye": 1065,
      "Ġsuf": 1066,
      "ird": 1067,
      "Ġbl": 1068,
      "ign": 1069,
      "Ġent": 1070,
      "Ġmotion": 1071,
      "ention": 1072,
      "ished": 1073,
      "Ġagainst": 1074,
      "cond": 1075,
      "Ġlong": 1076,
      "ady": 1077,
      "have": 1078,
      "),": 1079,
      "Ġthrough": 1080,
      "Ġwhere": 1081,
      "Ġeven": 1082,
      "ient": 1083,
      "Ġshe": 1084,
      "Ġnothing": 1085,
      "Ġargument": 1086,
      "cri": 1087,
      "Ġter": 1088,
      "ceive": 1089,
      "Ġrather": 1090,
      "Ġanim": 1091,
      "Ġview": 1092,
      "Ġbegin": 1093,
      "Ġamong": 1094,
      "Ġhear": 1095,
      "gether": 1096,
      "Ġprinci": 1097,
      "ys": 1098,
      "Ġold": 1099,
      "Ġoppos": 1100,
      "ense": 1101,
      "Ġday": 1102,
      "Ġwar": 1103,
      "Ġbad": 1104,
      "Ġunderstand": 1105,
      "Ġfalse": 1106,
      "Ġhand": 1107,
      "Ġhapp": 1108,
      "Ġlear": 1109,
      "ignor": 1110,
      "CAL": 1111,
      "ICL": 1112,
      "LICL": 1113,
      "CALLICL": 1114,
      "CALLICLES": 1115,
      "med": 1116,
      "uman": 1117,
      "de": 1118,
      "men": 1119,
      "Ġte": 1120,
      "Ġfire": 1121,
      "with": 1122,
      "any": 1123,
      "Ġfind": 1124,
      "Ġcare": 1125,
      "educ": 1126,
      "Ġhonour": 1127,
      "ures": 1128,
      "Ġexam": 1129,
      "Ġwork": 1130,
      "me": 1131,
      "ĠâĢ": 1132,
      "Ġtem": 1133,
      "Ġinv": 1134,
      "Ġnumber": 1135,
      "Ġapp": 1136,
      "Ġinter": 1137,
      "ĠNow": 1138,
      "Ġbelie": 1139,
      "Ġgiven": 1140,
      "ĠHow": 1141,
      "âĢĻ": 1142,
      "ken": 1143,
      "Ġoff": 1144,
      "ĠTo": 1145,
      "Ġimag": 1146,
      "MEN": 1147,
      "ute": 1148,
      "peri": 1149,
      "Ġcitiz": 1150,
      "Ġlegislat": 1151,
      "ia": 1152,
      "Ġthree": 1153,
      "ans": 1154,
      "Ġchildren": 1155,
      "Ġaway": 1156,
      "eed": 1157,
      "Ġthemselves": 1158,
      "Ġson": 1159,
      "Ġallow": 1160,
      "learly": 1161,
      "ilo": 1162,
      "aken": 1163,
      "ange": 1164,
      "Ġadmit": 1165,
      "Ġdiffic": 1166,
      "will": 1167,
      "ality": 1168,
      "ided": 1169,
      "Ġgreatest": 1170,
      "Ġwrong": 1171,
      "te": 1172,
      "Ġpri": 1173,
      "Ġchar": 1174,
      "Ġpresent": 1175,
      "aps": 1176,
      "Ġjudg": 1177,
      "ular": 1178,
      "iloso": 1179,
      "Ġwisdom": 1180,
      "Ġcreat": 1181,
      "ĠIf": 1182,
      "Ġph": 1183,
      "Ġspeaking": 1184,
      "ng": 1185,
      "Ġheav": 1186,
      "ples": 1187,
      "cy": 1188,
      "Ġignor": 1189,
      "hetor": 1190,
      "Ġser": 1191,
      "lect": 1192,
      "unt": 1193,
      "Ġsecond": 1194,
      "Ġagree": 1195,
      "Ġparts": 1196,
      "MENO": 1197,
      "OLUS": 1198,
      "POLUS": 1199,
      "fl": 1200,
      "Ġcor": 1201,
      "Ġadv": 1202,
      "ĠNo": 1203,
      "Ġappear": 1204,
      "AE": 1205,
      "Ġhuman": 1206,
      "its": 1207,
      "ory": 1208,
      "hetoric": 1209,
      "Ġwise": 1210,
      "Ġsm": 1211,
      "Ġfound": 1212,
      "ĠDo": 1213,
      "Ġquite": 1214,
      "try": 1215,
      "other": 1216,
      "who": 1217,
      "Ġret": 1218,
      "Ġexpl": 1219,
      "Ġneither": 1220,
      "there": 1221,
      "Ġnecess": 1222,
      "Ġmeaning": 1223,
      "Ġair": 1224,
      "Ġgreater": 1225,
      "haps": 1226,
      "Ġtri": 1227,
      "Ġyoung": 1228,
      "Ġregard": 1229,
      "by": 1230,
      "ural": 1231,
      "pr": 1232,
      "Ġref": 1233,
      "Ġgods": 1234,
      "The": 1235,
      "Ġpe": 1236,
      "Ġproceed": 1237,
      "ned": 1238,
      "Ġjustice": 1239,
      "Ġmod": 1240,
      "race": 1241,
      "igin": 1242,
      "ae": 1243,
      "Ġproper": 1244,
      "Ġremain": 1245,
      "ĠWell": 1246,
      "Ġtru": 1247,
      "this": 1248,
      "Ġthird": 1249,
      "ilar": 1250,
      "aut": 1251,
      "aving": 1252,
      "DRUS": 1253,
      "ittle": 1254,
      "ĠOf": 1255,
      "PHAE": 1256,
      "Ġsubject": 1257,
      "PHAEDRUS": 1258,
      "part": 1259,
      "Ġsing": 1260,
      "Ġeduc": 1261,
      "ulty": 1262,
      "ull": 1263,
      "Ġfl": 1264,
      "olunt": 1265,
      "Ġcommon": 1266,
      "up": 1267,
      "Ġfour": 1268,
      "Ġmar": 1269,
      "ween": 1270,
      "Ġguard": 1271,
      "sol": 1272,
      "Ġwater": 1273,
      "Ġthus": 1274,
      "Ġput": 1275,
      "ets": 1276,
      "Ġgeneral": 1277,
      "ĠWe": 1278,
      "Ġpossess": 1279,
      "'s": 1280,
      "cer": 1281,
      "Ġro": 1282,
      "ready": 1283,
      "Ġfather": 1284,
      "ases": 1285,
      "urther": 1286,
      "Ġpoint": 1287,
      "wards": 1288,
      "ven": 1289,
      "ety": 1290,
      "Ġbecome": 1291,
      "Ġprod": 1292,
      "Ġliv": 1293,
      "ides": 1294,
      "Ġcountry": 1295,
      "like": 1296,
      "ib": 1297,
      "icles": 1298,
      "ific": 1299,
      "Ġsays": 1300,
      "ourse": 1301,
      "ared": 1302,
      "Ġsomething": 1303,
      "Ġadd": 1304,
      "Ġcar": 1305,
      "ack": 1306,
      "lato": 1307,
      "Ġphiloso": 1308,
      "Ġsmall": 1309,
      "Ġspo": 1310,
      "Ġknows": 1311,
      ":--": 1312,
      "Ġwom": 1313,
      "their": 1314,
      "ĠWhy": 1315,
      "Ġel": 1316,
      "ĠAthen": 1317,
      "Ġrhetoric": 1318,
      "Ġlegislator": 1319,
      "ual": 1320,
      "Ġorigin": 1321,
      "Ġdifferent": 1322,
      "dis": 1323,
      "ribut": 1324,
      "Ġsuppos": 1325,
      "Ġremem": 1326,
      "Ġwhy": 1327,
      "vers": 1328,
      "Ġunt": 1329,
      "Ġprev": 1330,
      "Ġarts": 1331,
      "ale": 1332,
      "Ġtogether": 1333,
      "Ġcertainly": 1334,
      "Ġbelieve": 1335,
      "ced": 1336,
      "ubl": 1337,
      "what": 1338,
      "Ġmus": 1339,
      "Ġpun": 1340,
      "Ġwhile": 1341,
      "aking": 1342,
      "ours": 1343,
      "Ġlove": 1344,
      "Ġlook": 1345,
      "Ġprinciple": 1346,
      "ail": 1347,
      "Ġut": 1348,
      "ĠWhen": 1349,
      "Ġpleasures": 1350,
      "rest": 1351,
      "imes": 1352,
      "Ġshow": 1353,
      "ants": 1354,
      "Ġlikely": 1355,
      "form": 1356,
      "Ġopposite": 1357,
      ",--": 1358,
      "Ġsense": 1359,
      "omet": 1360,
      "Ġlittle": 1361,
      "Ġdivine": 1362,
      "Ġkinds": 1363,
      "Ġyears": 1364,
      "ublic": 1365,
      "nat": 1366,
      "ick": 1367,
      "ict": 1368,
      "Ġsimilar": 1369,
      "Ġes": 1370,
      "Ġcertain": 1371,
      "alk": 1372,
      "Ġreally": 1373,
      "though": 1374,
      "Ġdeath": 1375,
      "Ġpossible": 1376,
      "Ġmaking": 1377,
      "bed": 1378,
      "lp": 1379,
      "Ġdou": 1380,
      "Ġrep": 1381,
      "Ġdescri": 1382,
      "Ġobser": 1383,
      "ym": 1384,
      "ances": 1385,
      "Ġaff": 1386,
      "Ġfear": 1387,
      "Ġcourage": 1388,
      "ho": 1389,
      "ised": 1390,
      "aced": 1391,
      "hys": 1392,
      "Ġcitizens": 1393,
      "cc": 1394,
      "when": 1395,
      "Ġins": 1396,
      "Ġrel": 1397,
      "Ġalready": 1398,
      "Ġlight": 1399,
      "cient": 1400,
      "Ġperfect": 1401,
      "Ġmatters": 1402,
      "Ġuntil": 1403,
      "ities": 1404,
      "af": 1405,
      "ision": 1406,
      "Ġdown": 1407,
      "Ġey": 1408,
      "Ġonce": 1409,
      "ĠThey": 1410,
      "Ġelements": 1411,
      "Ġtruly": 1412,
      "Ġset": 1413,
      "Ġstates": 1414,
      "Ġbetween": 1415,
      "Ġwrit": 1416,
      "xt": 1417,
      "Ġfig": 1418,
      "Ġext": 1419,
      "Ġuniver": 1420,
      "Ġmeans": 1421,
      "Ġindeed": 1422,
      "Ġcond": 1423,
      "justice": 1424,
      "Ġdifficulty": 1425,
      "do": 1426,
      "Ġharm": 1427,
      "term": 1428,
      "poss": 1429,
      "ĠPlato": 1430,
      "Ġmakes": 1431,
      "pher": 1432,
      "Ġimit": 1433,
      "Ġnatural": 1434,
      "Ġpersu": 1435,
      "Ġremember": 1436,
      "par": 1437,
      "Ġexpress": 1438,
      "Ġneed": 1439,
      "tranger": 1440,
      "lf": 1441,
      "Ġphys": 1442,
      "Ġhelp": 1443,
      "Ġdel": 1444,
      "Ġnext": 1445,
      ",'": 1446,
      "ined": 1447,
      "arily": 1448,
      "ement": 1449,
      "Ġfair": 1450,
      "ating": 1451,
      "ark": 1452,
      "ured": 1453,
      "ĠStranger": 1454,
      "âĢĿ": 1455,
      "Ġrespect": 1456,
      "Ġanimals": 1457,
      "ger": 1458,
      "Ġeas": 1459,
      "irc": 1460,
      "ained": 1461,
      "Ġalthough": 1462,
      "Ġcourse": 1463,
      "Ġide": 1464,
      "Ġmist": 1465,
      "Ġfurther": 1466,
      "Ġmyself": 1467,
      "ered": 1468,
      "sion": 1469,
      "iness": 1470,
      "Ġyouth": 1471,
      "And": 1472,
      "igh": 1473,
      "say": 1474,
      "Ġdone": 1475,
      "ution": 1476,
      "cell": 1477,
      "ception": 1478,
      "Ġhold": 1479,
      "kind": 1480,
      "res": 1481,
      "ician": 1482,
      "arch": 1483,
      "over": 1484,
      "ited": 1485,
      "pose": 1486,
      "ĠHell": 1487,
      "posed": 1488,
      "row": 1489,
      "ene": 1490,
      "being": 1491,
      "ĠPro": 1492,
      "Ġobject": 1493,
      "knowledge": 1494,
      "Ġimagine": 1495,
      "him": 1496,
      "Ġsci": 1497,
      "Ġmis": 1498,
      "Ġcol": 1499,
      "Ġbeaut": 1500,
      "Ġinstru": 1501,
      "ial": 1502,
      "Ġwo": 1503,
      "Ġoften": 1504,
      "Ġem": 1505,
      "Ġreceiv": 1506,
      "Ġgoing": 1507,
      "Ġocc": 1508,
      "reed": 1509,
      "Ġsur": 1510,
      "Ġdra": 1511,
      "avour": 1512,
      "Ġbecom": 1513,
      "Ġrightly": 1514,
      "Ġeducation": 1515,
      "Ġage": 1516,
      "akes": 1517,
      "Ġprop": 1518,
      "Ġappears": 1519,
      "most": 1520,
      "ms": 1521,
      "ove": 1522,
      "wor": 1523,
      "Ġmag": 1524,
      "Ġpay": 1525,
      "ĠIt": 1526,
      "Ġits": 1527,
      "EU": 1528,
      "ft": 1529,
      "yr": 1530,
      "tern": 1531,
      "Ġsuffer": 1532,
      "IL": 1533,
      "ises": 1534,
      "ons": 1535,
      "enes": 1536,
      "Ġfam": 1537,
      "let": 1538,
      "Ġdisco": 1539,
      ".'": 1540,
      "Ġcause": 1541,
      "Ġgover": 1542,
      "Ġvar": 1543,
      "ellig": 1544,
      "Ġfeel": 1545,
      "ĠIs": 1546,
      "Ġspee": 1547,
      "Ġbring": 1548,
      "Ġsurely": 1549,
      "Ġlast": 1550,
      "quir": 1551,
      "ude": 1552,
      "bod": 1553,
      "ress": 1554,
      "ences": 1555,
      "Ġhard": 1556,
      "Ġsever": 1557,
      "ins": 1558,
      "err": 1559,
      "Ġhere": 1560,
      "Ġheard": 1561,
      "oney": 1562,
      "Ġexample": 1563,
      "Ġtemper": 1564,
      "gth": 1565,
      "omer": 1566,
      "Ġconcer": 1567,
      "ĠSo": 1568,
      "Ġtimes": 1569,
      "Ġelse": 1570,
      "rit": 1571,
      "ince": 1572,
      "things": 1573,
      "ĠThis": 1574,
      "Ġdoing": 1575,
      "aces": 1576,
      "cons": 1577,
      "Ġunjust": 1578,
      "Ġfriends": 1579,
      "ometimes": 1580,
      ";--": 1581,
      "pare": 1582,
      "Ġmas": 1583,
      "Ġpen": 1584,
      "Ġrequire": 1585,
      "ility": 1586,
      "Ġbodies": 1587,
      "ably": 1588,
      "ME": 1589,
      "ivid": 1590,
      "ĠâĢĺ": 1591,
      "Ġreturn": 1592,
      "iety": 1593,
      "Ġill": 1594,
      "Ġcaus": 1595,
      "Ġnoble": 1596,
      "Ġef": 1597,
      "pri": 1598,
      "Ġland": 1599,
      "Ġancient": 1600,
      "Ġdeterm": 1601,
      "Ġheaven": 1602,
      "pleas": 1603,
      "hether": 1604,
      "ĠAs": 1605,
      "Ġconf": 1606,
      "Ġpract": 1607,
      "oy": 1608,
      "ingu": 1609,
      "Ġget": 1610,
      "Ġprof": 1611,
      "ract": 1612,
      "ortion": 1613,
      "ĠOr": 1614,
      "HY": 1615,
      "THY": 1616,
      "rink": 1617,
      "would": 1618,
      "rem": 1619,
      "Ġwealth": 1620,
      "Ġrec": 1621,
      "Ġsuit": 1622,
      "Ġdec": 1623,
      "Ġrid": 1624,
      "shall": 1625,
      "PHRO": 1626,
      "Ġmusic": 1627,
      "EUTHY": 1628,
      "EUTHYPHRO": 1629,
      ".)": 1630,
      "gy": 1631,
      "ĠR": 1632,
      "Ġinc": 1633,
      "Ġattain": 1634,
      "Ġdise": 1635,
      "Ġlearn": 1636,
      "GIL": 1637,
      "ged": 1638,
      "was": 1639,
      "use": 1640,
      "irm": 1641,
      "Ġlive": 1642,
      "Ġpersons": 1643,
      "MEGIL": 1644,
      "MEGILLUS": 1645,
      "aet": 1646,
      "Ġsake": 1647,
      "Ġcirc": 1648,
      "ĠTh": 1649,
      "Ġmeet": 1650,
      "Ġadm": 1651,
      "Ġexistence": 1652,
      "HI": 1653,
      "PP": 1654,
      "Qu": 1655,
      "my": 1656,
      "ople": 1657,
      "Ġwish": 1658,
      "Ġsometimes": 1659,
      "Ġcre": 1660,
      "Ġpublic": 1661,
      "Ġke": 1662,
      "Ġmove": 1663,
      "Ġnew": 1664,
      "Ġworth": 1665,
      "HIPP": 1666,
      "HIPPIAS": 1667,
      "ON": 1668,
      "bers": 1669,
      "ĠQu": 1670,
      "Ġlar": 1671,
      "aintain": 1672,
      "Ġwhatever": 1673,
      "ĠSt": 1674,
      "ĠWhere": 1675,
      "ymn": 1676,
      "Ġscience": 1677,
      "well": 1678,
      "Ġerr": 1679,
      "Ġfall": 1680,
      "Ġincl": 1681,
      "Ġequal": 1682,
      "Ġappro": 1683,
      "bit": 1684,
      "Ġhead": 1685,
      "ĠHomer": 1686,
      "Ġpartic": 1687,
      "ount": 1688,
      "ĠMe": 1689,
      "Ġrun": 1690,
      "Ġdiscus": 1691,
      "ĠâĢľ": 1692,
      "Ġignorance": 1693,
      "Ġguardians": 1694,
      "ĠQuite": 1695,
      "cause": 1696,
      "great": 1697,
      "ior": 1698,
      "iol": 1699,
      "ling": 1700,
      "Ġturn": 1701,
      "Ġdeg": 1702,
      "ĠClearly": 1703,
      "ortal": 1704,
      "ishment": 1705,
      "Ġserv": 1706,
      "Ġexplain": 1707,
      "from": 1708,
      "Ġtalk": 1709,
      "ouse": 1710,
      "Ġinfl": 1711,
      "Ġgovern": 1712,
      "air": 1713,
      "Ġsac": 1714,
      "ony": 1715,
      "Ġhig": 1716,
      "ime": 1717,
      "Ġreal": 1718,
      "uring": 1719,
      "etus": 1720,
      "Ġking": 1721,
      "Ġyourself": 1722,
      "ĠPh": 1723,
      "Ġenough": 1724,
      "Ġimpro": 1725,
      "aetetus": 1726,
      "ream": 1727,
      "Ġinfer": 1728,
      "Ġindivid": 1729,
      "ficient": 1730,
      "Ġdifference": 1731,
      "Ġteac": 1732,
      "Ġcharact": 1733,
      "Ġsupposed": 1734,
      "vate": 1735,
      "Ġra": 1736,
      "rect": 1737,
      "Ġcame": 1738,
      "Ġinjustice": 1739,
      "these": 1740,
      "Ġprob": 1741,
      "Ġletters": 1742,
      "Ġhowever": 1743,
      "Ġmin": 1744,
      "orus": 1745,
      "Ġgl": 1746,
      "Ġmeas": 1747,
      "ustom": 1748,
      "Ġleave": 1749,
      "Ġval": 1750,
      "about": 1751,
      "Ġbrought": 1752,
      "finite": 1753,
      "oluntarily": 1754,
      "Ġspeech": 1755,
      "some": 1756,
      "Ġsk": 1757,
      "ics": 1758,
      "Ġhealth": 1759,
      "Ġconv": 1760,
      "Ġexcell": 1761,
      "empt": 1762,
      "Ġforms": 1763,
      "ship": 1764,
      "Ġpeople": 1765,
      "Ġprodu": 1766,
      "Ġpenal": 1767,
      "good": 1768,
      "Ġtry": 1769,
      "new": 1770,
      "Ġteach": 1771,
      "Ġwomen": 1772,
      "ĠProt": 1773,
      "body": 1774,
      "Ġseveral": 1775,
      "oth": 1776,
      "ret": 1777,
      "Ġcases": 1778,
      "Ġdire": 1779,
      "sem": 1780,
      "Ġenquir": 1781,
      "Ġrule": 1782,
      "perior": 1783,
      "Ġignorant": 1784,
      "DO": 1785,
      "ODO": 1786,
      "bt": 1787,
      "wise": 1788,
      "Ġinj": 1789,
      "lein": 1790,
      "Ġgave": 1791,
      "THEODO": 1792,
      "isten": 1793,
      "Ġround": 1794,
      "phist": 1795,
      "Ġdivided": 1796,
      "Ġbeginning": 1797,
      "Ġsingle": 1798,
      "Ġutter": 1799,
      "THEODORUS": 1800,
      "OR": 1801,
      "where": 1802,
      "Ġappo": 1803,
      "Ġmoney": 1804,
      "Ġsepar": 1805,
      "Ġabove": 1806,
      "Ġcreated": 1807,
      "Ġuniverse": 1808,
      "ternal": 1809,
      "GIAS": 1810,
      "GOR": 1811,
      "hood": 1812,
      "Ġaction": 1813,
      "isf": 1814,
      "Ġmention": 1815,
      "Ġmaintain": 1816,
      "Ġclearly": 1817,
      "Ġfre": 1818,
      "Ġfact": 1819,
      "Ġpol": 1820,
      "itions": 1821,
      "Ġdrink": 1822,
      "asion": 1823,
      "ĠAn": 1824,
      "amed": 1825,
      "Ġleft": 1826,
      "ĠTheaetetus": 1827,
      "Ġaccom": 1828,
      "Ġcommand": 1829,
      "Ġintellig": 1830,
      "Ġdistingu": 1831,
      "ixed": 1832,
      "leinias": 1833,
      "GORGIAS": 1834,
      "equ": 1835,
      "spe": 1836,
      "Ġsc": 1837,
      "isible": 1838,
      "ĠAt": 1839,
      "Ġcontr": 1840,
      "ĠHer": 1841,
      "ended": 1842,
      "Ġsound": 1843,
      "aves": 1844,
      "Ġpray": 1845,
      "should": 1846,
      "Ġhope": 1847,
      "ION": 1848,
      "au": 1849,
      "Ġthough": 1850,
      "lly": 1851,
      "Ġreceive": 1852,
      "verse": 1853,
      "Ġmankind": 1854,
      "Ġdear": 1855,
      "Ġcomes": 1856,
      "Ġcho": 1857,
      "Ġperhaps": 1858,
      "Ġcontin": 1859,
      "Ġseems": 1860,
      "Ġjudges": 1861,
      "Ġliving": 1862,
      "has": 1863,
      "Ġsens": 1864,
      "Ġfan": 1865,
      "Ġnotion": 1866,
      "ident": 1867,
      "ried": 1868,
      "Ġwithin": 1869,
      "ests": 1870,
      "ages": 1871,
      "phy": 1872,
      "Ġasked": 1873,
      "Ġfollows": 1874,
      "Ġdiscourse": 1875,
      "Ġdesires": 1876,
      "possible": 1877,
      "YLUS": 1878,
      "erc": 1879,
      "CRATYLUS": 1880,
      "Ġprov": 1881,
      "Ġitself": 1882,
      "Ġcompe": 1883,
      "Ġchang": 1884,
      "lesh": 1885,
      "uthor": 1886,
      "Ġslave": 1887,
      "ler": 1888,
      "Ġhor": 1889,
      "iful": 1890,
      "Ġprocess": 1891,
      "Ġformer": 1892,
      "uced": 1893,
      "Ġjudge": 1894,
      "Ġprivate": 1895,
      "Ġmagist": 1896,
      "vo": 1897,
      "Ġir": 1898,
      "Ġbu": 1899,
      "edic": 1900,
      "Ġviol": 1901,
      "Ġtrain": 1902,
      "angu": 1903,
      "ference": 1904,
      "Ġnecessity": 1905,
      "aeus": 1906,
      "Ġesc": 1907,
      "Ġeffect": 1908,
      "aught": 1909,
      "erest": 1910,
      "atisf": 1911,
      "ising": 1912,
      "Ġhouse": 1913,
      "org": 1914,
      "Ġmem": 1915,
      "Ġsuperior": 1916,
      "Ġlead": 1917,
      "cies": 1918,
      "Ġpoet": 1919,
      "Ġteacher": 1920,
      "Ġcharacter": 1921,
      ":âĢĶ": 1922,
      "app": 1923,
      "dif": 1924,
      "grace": 1925,
      "lled": 1926,
      "Ġfr": 1927,
      "Ġrepe": 1928,
      "ĠAr": 1929,
      "illed": 1930,
      "Ġseen": 1931,
      "ĠSh": 1932,
      "plied": 1933,
      "ĠPol": 1934,
      "Ġgeneration": 1935,
      "Ġanimal": 1936,
      "Ġallowed": 1937,
      "Ġphilosopher": 1938,
      "anguage": 1939,
      "ks": 1940,
      "pir": 1941,
      "ash": 1942,
      "Ġconst": 1943,
      "Ġdecl": 1944,
      "Ġworse": 1945,
      "Ġourselves": 1946,
      "Ġbelong": 1947,
      "Ġequally": 1948,
      "Ġspoken": 1949,
      "may": 1950,
      "ture": 1951,
      "whether": 1952,
      "Ġside": 1953,
      "itness": 1954,
      "Ġden": 1955,
      "vered": 1956,
      "Ġmother": 1957,
      "Ġexperi": 1958,
      "Ġdisp": 1959,
      "Ġenem": 1960,
      "Ġentire": 1961,
      "Ġdoubt": 1962,
      "CR": 1963,
      "IT": 1964,
      "cul": 1965,
      "ier": 1966,
      "more": 1967,
      "reg": 1968,
      "Ġfree": 1969,
      "Ġlover": 1970,
      "Ġgrow": 1971,
      "Ġhonourable": 1972,
      "orgias": 1973,
      "CRIT": 1974,
      "aim": 1975,
      "bet": 1976,
      "ead": 1977,
      "law": 1978,
      "Ġsight": 1979,
      "Ġfin": 1980,
      "icul": 1981,
      "usion": 1982,
      "Ġdeem": 1983,
      "aren": 1984,
      "Ġfew": 1985,
      "Ġactions": 1986,
      "Ġreply": 1987,
      "Ġfigure": 1988,
      "Ġphysician": 1989,
      "Ġwonder": 1990,
      "Ġsince": 1991,
      "Ġgymn": 1992,
      "ury": 1993,
      "Ġsum": 1994,
      "quest": 1995,
      "Ġdefin": 1996,
      "ĠCleinias": 1997,
      "ote": 1998,
      "Ġcities": 1999,
      "Ġlonger": 2000,
      "Ġmoder": 2001,
      "Ġmistaken": 2002,
      "aem": 2003,
      "vol": 2004,
      "Ġtaken": 2005,
      "Ġaw": 2006,
      "Ġaim": 2007,
      "Ġbene": 2008,
      "Ġdest": 2009,
      "arb": 2010,
      "Ġgent": 2011,
      "order": 2012,
      "Ġsouls": 2013,
      "were": 2014,
      "Ġfood": 2015,
      "Ġgives": 2016,
      "Ġpenalty": 2017,
      "can": 2018,
      "eness": 2019,
      "aring": 2020,
      "Ġwilling": 2021,
      "Ġsun": 2022,
      "Ġsea": 2023,
      "Ġimage": 2024,
      "position": 2025,
      "Ġhands": 2026,
      "Ġhappy": 2027,
      "Ġpolit": 2028,
      "ax": 2029,
      "nding": 2030,
      "Ġhun": 2031,
      "oment": 2032,
      "Ġcomple": 2033,
      "astic": 2034,
      "Ġevils": 2035,
      "Ġuseful": 2036,
      "Ġyear": 2037,
      "Ġdays": 2038,
      "Ġregarded": 2039,
      "fo": 2040,
      "ped": 2041,
      "ration": 2042,
      "ĠZ": 2043,
      "Ġback": 2044,
      "Ġfull": 2045,
      "Ġpure": 2046,
      "Ġforg": 2047,
      "ĠEx": 2048,
      "Ġelement": 2049,
      "Ġdistin": 2050,
      "Ġpraise": 2051,
      "Ġprevious": 2052,
      "nature": 2053,
      "Ġobserve": 2054,
      "Ġmaster": 2055,
      "ĠShall": 2056,
      "aemon": 2057,
      "eavour": 2058,
      "ison": 2059,
      "Ġlanguage": 2060,
      "Ġwhose": 2061,
      "Ġmere": 2062,
      "Ġdoct": 2063,
      "ĠBy": 2064,
      "Ġchange": 2065,
      "Ġplease": 2066,
      "Ġways": 2067,
      "Ġattempt": 2068,
      "Ġproperty": 2069,
      "oluntary": 2070,
      "Ġeyes": 2071,
      "Ġbecomes": 2072,
      "Ġprofess": 2073,
      "Ġenquiry": 2074,
      "augh": 2075,
      "under": 2076,
      "Ġbro": 2077,
      "Ġflesh": 2078,
      "ents": 2079,
      "ains": 2080,
      "Ġnear": 2081,
      "Ġunless": 2082,
      "acc": 2083,
      "ortun": 2084,
      "ief": 2085,
      "ĠGorgias": 2086,
      "Ġthinks": 2087,
      "Ġfool": 2088,
      "acedaemon": 2089,
      "Ġdegree": 2090,
      "ACH": 2091,
      "LACH": 2092,
      "another": 2093,
      "either": 2094,
      "gener": 2095,
      "hal": 2096,
      "hest": 2097,
      "Ġauthor": 2098,
      "ination": 2099,
      "ites": 2100,
      "uture": 2101,
      "ift": 2102,
      "than": 2103,
      "ods": 2104,
      "rupt": 2105,
      "Ġacqu": 2106,
      "Ġtrans": 2107,
      "Ġinterest": 2108,
      "Ġpains": 2109,
      "Ġassum": 2110,
      "Ġgovernment": 2111,
      "Ġmeasure": 2112,
      "LACHES": 2113,
      "ape": 2114,
      "land": 2115,
      "vation": 2116,
      "Ġest": 2117,
      "Ġten": 2118,
      "into": 2119,
      "inted": 2120,
      "Ġming": 2121,
      "imaeus": 2122,
      "Ġhabit": 2123,
      "oward": 2124,
      "Ġleast": 2125,
      "Ġdef": 2126,
      "Ġknown": 2127,
      "ousand": 2128,
      "Ġdisgrace": 2129,
      "Ġseeing": 2130,
      "Ġformed": 2131,
      "exist": 2132,
      "Ġquestions": 2133,
      "Ġassign": 2134,
      "Ġcorrect": 2135,
      "ĠAthenians": 2136,
      "Ġeasily": 2137,
      "ĠHellenes": 2138,
      "Ġcauses": 2139,
      "Ġkeep": 2140,
      "ear": 2141,
      "ike": 2142,
      "Ġsol": 2143,
      "Ġmad": 2144,
      "Ġtold": 2145,
      "ened": 2146,
      "irth": 2147,
      "Ġforth": 2148,
      "together": 2149,
      "cont": 2150,
      "Ġgiving": 2151,
      "Ġclasses": 2152,
      "Ġpursu": 2153,
      "Ġjudgment": 2154,
      "Ġbeauty": 2155,
      "void": 2156,
      "iculous": 2157,
      ").": 2158,
      "eus": 2159,
      "mon": 2160,
      "Ġce": 2161,
      "Ġinfinite": 2162,
      "uted": 2163,
      "Ġhalf": 2164,
      "Ġasser": 2165,
      "Ġknew": 2166,
      "Ġstri": 2167,
      "Ġgoods": 2168,
      "Ġcomb": 2169,
      "cially": 2170,
      "ending": 2171,
      "Ġplaces": 2172,
      "present": 2173,
      "appe": 2174,
      "Ġremark": 2175,
      "actly": 2176,
      "Ġimport": 2177,
      "Ġdescribed": 2178,
      "Ġcreation": 2179,
      ",âĢĶ": 2180,
      "div": 2181,
      "pire": 2182,
      "Ġmoment": 2183,
      "Ġfuture": 2184,
      "orn": 2185,
      "Ġarri": 2186,
      "ately": 2187,
      "ĠThese": 2188,
      "rave": 2189,
      "Ġpoets": 2190,
      "agor": 2191,
      "Ġpreser": 2192,
      "Ġsufficient": 2193,
      "Ġwhereas": 2194,
      "Ġsons": 2195,
      "Ġoriginal": 2196,
      "Ġeye": 2197,
      "Ġinferior": 2198,
      "des": 2199,
      "kes": 2200,
      "wo": 2201,
      "Ġrace": 2202,
      "Ġsatisf": 2203,
      "ative": 2204,
      "Ġparen": 2205,
      "icted": 2206,
      "Ġrelat": 2207,
      "Ġreco": 2208,
      "ĠAll": 2209,
      "Ġgold": 2210,
      "Ġself": 2211,
      "Ġdead": 2212,
      "antage": 2213,
      "Ġcourt": 2214,
      "Ġsorts": 2215,
      "Ġterm": 2216,
      "Ġtriang": 2217,
      "after": 2218,
      "go": 2219,
      "having": 2220,
      "ls": 2221,
      "same": 2222,
      "und": 2223,
      "Ġmon": 2224,
      "ength": 2225,
      "Ġfight": 2226,
      "cted": 2227,
      "Ġship": 2228,
      "ades": 2229,
      "Ġstand": 2230,
      "arer": 2231,
      "aches": 2232,
      "ĠPer": 2233,
      "reek": 2234,
      "Ġfeet": 2235,
      "ize": 2236,
      "Ġdetermine": 2237,
      "Ġdisease": 2238,
      "gg": 2239,
      "ring": 2240,
      "said": 2241,
      "Ġtyr": 2242,
      "ased": 2243,
      "Ġlatter": 2244,
      "urd": 2245,
      "roy": 2246,
      "Ġvic": 2247,
      "ĠCall": 2248,
      "Ġacquire": 2249,
      "apable": 2250,
      "Ġendeavour": 2251,
      "Ġfollowing": 2252,
      "Ġaffirm": 2253,
      "Ġsuitable": 2254,
      "Ġfreem": 2255,
      "agoras": 2256,
      "course": 2257,
      "Ġtakes": 2258,
      "ines": 2259,
      "Ġmedic": 2260,
      "Ġcr": 2261,
      "itude": 2262,
      "ĠAl": 2263,
      "Ġalone": 2264,
      "cious": 2265,
      "Ġtrad": 2266,
      "ield": 2267,
      "ĠOn": 2268,
      "Ġlegisl": 2269,
      "Ġblood": 2270,
      "Ġphilosophy": 2271,
      "Ġidea": 2272,
      "ighb": 2273,
      "Ġvarious": 2274,
      "ĠSophist": 2275,
      "Ġmagistrates": 2276,
      "ck": 2277,
      "day": 2278,
      "gue": 2279,
      "num": 2280,
      "ses": 2281,
      "uppose": 2282,
      "erable": 2283,
      "ones": 2284,
      "uses": 2285,
      "essence": 2286,
      "Ġexh": 2287,
      "ives": 2288,
      "bel": 2289,
      "Ġinstead": 2290,
      "Ġnumbers": 2291,
      "Ġresult": 2292,
      "Ġfail": 2293,
      "Ġlearned": 2294,
      "Ġdiscussion": 2295,
      "Ġhorse": 2296,
      "eous": 2297,
      "oved": 2298,
      "inter": 2299,
      "Ġwitness": 2300,
      "Ġsw": 2301,
      "Ġswe": 2302,
      "used": 2303,
      "sequ": 2304,
      "Ġdeal": 2305,
      "Ġpres": 2306,
      "Ġseek": 2307,
      "Ġdivision": 2308,
      "Ġattribut": 2309,
      "Ġlesser": 2310,
      "Ġcitizen": 2311,
      "ĠWherefore": 2312,
      "ĠZeus": 2313,
      "come": 2314,
      "ges": 2315,
      "how": 2316,
      "ost": 2317,
      "rate": 2318,
      "Ġtou": 2319,
      "nded": 2320,
      "Ġsy": 2321,
      "Ġsil": 2322,
      "Ġtowards": 2323,
      "Ġcut": 2324,
      "Ġdanger": 2325,
      "Ġduring": 2326,
      "utation": 2327,
      "utions": 2328,
      "Ġlength": 2329,
      "Ġready": 2330,
      "odorus": 2331,
      "Ġexerc": 2332,
      "Ġimm": 2333,
      "ords": 2334,
      "Ġdeser": 2335,
      "Ġprinciples": 2336,
      "Ġfourth": 2337,
      "Ġwoman": 2338,
      "Ġreceived": 2339,
      "honour": 2340,
      "pers": 2341,
      "ually": 2342,
      "isions": 2343,
      "Ġcoward": 2344,
      "Ġdare": 2345,
      "ask": 2346,
      "Ġlim": 2347,
      "enty": 2348,
      "Ġdefe": 2349,
      "Ġused": 2350,
      "ĠSuch": 2351,
      "Ġknowing": 2352,
      "Ġplay": 2353,
      "Ġaffect": 2354,
      "ountain": 2355,
      "ĠLacedaemon": 2356,
      "Ġstranger": 2357,
      "Ġtermed": 2358,
      "Ġdifficult": 2359,
      "Ġnecessary": 2360,
      "solute": 2361,
      "ches": 2362,
      "rine": 2363,
      "such": 2364,
      "Ġbirth": 2365,
      "only": 2366,
      "Ġclear": 2367,
      "Ġcustom": 2368,
      "anation": 2369,
      "Ġeld": 2370,
      "think": 2371,
      "ĠAg": 2372,
      "ĠTimaeus": 2373,
      "Ġexcess": 2374,
      "Ġdeed": 2375,
      "Ġarr": 2376,
      "Ġaccept": 2377,
      "Ġstrong": 2378,
      "Ġserious": 2379,
      "Ġcarry": 2380,
      "Ġrelation": 2381,
      "ĠCallicles": 2382,
      "Ġmedicine": 2383,
      "BO": 2384,
      "gn": 2385,
      "Ġtest": 2386,
      "Ġak": 2387,
      "Ġsus": 2388,
      "Ġmortal": 2389,
      "Ġthousand": 2390,
      "Ġnight": 2391,
      "Ġnone": 2392,
      "iding": 2393,
      "pecially": 2394,
      "Ġprove": 2395,
      "archus": 2396,
      "Ġfamily": 2397,
      "gypt": 2398,
      "Ġdistinguish": 2399,
      "ĠPolus": 2400,
      "Ġdefinition": 2401,
      "fit": 2402,
      "Ġtaught": 2403,
      "Ġsent": 2404,
      "Ġsour": 2405,
      "Ġmet": 2406,
      "Ġfell": 2407,
      "Ġfore": 2408,
      "idd": 2409,
      "ows": 2410,
      "Ġproof": 2411,
      "raid": 2412,
      "ext": 2413,
      "Ġcarried": 2414,
      "Ġerror": 2415,
      "Ġchoose": 2416,
      "Ġexperience": 2417,
      "vious": 2418,
      "Ġtale": 2419,
      "Ġward": 2420,
      "nds": 2421,
      "Ġoffer": 2422,
      "Ġfine": 2423,
      "Ġdet": 2424,
      "Ġsuc": 2425,
      "ĠSuppose": 2426,
      "ĠWh": 2427,
      "Ġabst": 2428,
      "Ġaccount": 2429,
      "tory": 2430,
      "ceived": 2431,
      "keness": 2432,
      "Ġridiculous": 2433,
      "Ġworthy": 2434,
      "Ġaccompl": 2435,
      "bly": 2436,
      "met": 2437,
      "ob": 2438,
      "oice": 2439,
      "ron": 2440,
      "Ġri": 2441,
      "rer": 2442,
      "att": 2443,
      "llect": 2444,
      "Ġcent": 2445,
      "Ġfit": 2446,
      "Ġfif": 2447,
      "ices": 2448,
      "Ġread": 2449,
      "Ġnur": 2450,
      "acle": 2451,
      "Ġagre": 2452,
      "Ġagreed": 2453,
      "because": 2454,
      "again": 2455,
      "Ġric": 2456,
      "angers": 2457,
      "Ġpleasant": 2458,
      "Ġlot": 2459,
      "Ġafraid": 2460,
      "ables": 2461,
      "Ġcommun": 2462,
      "compare": 2463,
      "Ġdouble": 2464,
      "Ġbeautiful": 2465,
      "Ġparticular": 2466,
      "Ġtalking": 2467,
      "ĠProtarchus": 2468,
      "Ġappointed": 2469,
      "piration": 2470,
      "better": 2471,
      "half": 2472,
      "aed": 2473,
      "call": 2474,
      "ef": 2475,
      "first": 2476,
      "full": 2477,
      "nest": 2478,
      "Ġve": 2479,
      "inst": 2480,
      "Ġhur": 2481,
      "Ġpat": 2482,
      "Ġder": 2483,
      "alities": 2484,
      "owing": 2485,
      "Ġdem": 2486,
      "Ġneighb": 2487,
      "olon": 2488,
      "ĠBe": 2489,
      "ĠNot": 2490,
      "Ġminds": 2491,
      "ĠEgypt": 2492,
      "Ġspir": 2493,
      "Ġtemples": 2494,
      "Ġlives": 2495,
      "Ġpunishment": 2496,
      "hold": 2497,
      "Ġfigures": 2498,
      "Ġcondition": 2499,
      "Ġescape": 2500,
      "arbar": 2501,
      "Ġparents": 2502,
      "dist": 2503,
      "ev": 2504,
      "must": 2505,
      "Ġessence": 2506,
      "Ġsix": 2507,
      "ator": 2508,
      "oul": 2509,
      "ĠAre": 2510,
      "Ġconceive": 2511,
      "Ġquality": 2512,
      "ĠMen": 2513,
      "Ġpunished": 2514,
      "Ġideas": 2515,
      "Ġoccur": 2516,
      "Ġdiscovered": 2517,
      "Ġhardly": 2518,
      "Ġsacr": 2519,
      "Ġfancy": 2520,
      "Ġteachers": 2521,
      "Ġfoolish": 2522,
      "band": 2523,
      "ds": 2524,
      "op": 2525,
      "time": 2526,
      "ering": 2527,
      "Ġcal": 2528,
      "Ġdwell": 2529,
      "Ġnobl": 2530,
      "usband": 2531,
      "those": 2532,
      "Ġfort": 2533,
      "Ġshare": 2534,
      "Ġselect": 2535,
      "Ġcontain": 2536,
      "ists": 2537,
      "anted": 2538,
      "been": 2539,
      "trod": 2540,
      "ĠMost": 2541,
      "comp": 2542,
      "Ġregul": 2543,
      "Ġsubst": 2544,
      "ixture": 2545,
      "Ġworks": 2546,
      "Ġadmitted": 2547,
      "Ġadvantage": 2548,
      "Ġremains": 2549,
      "Ġfeeling": 2550,
      "Ġtemperance": 2551,
      "Ġinflu": 2552,
      "ashion": 2553,
      "Ġgymnastic": 2554,
      "cing": 2555,
      "ipp": 2556,
      "val": 2557,
      "ining": 2558,
      "Ġwat": 2559,
      "ching": 2560,
      "Ġexpect": 2561,
      "emper": 2562,
      "Ġneg": 2563,
      "Ġpret": 2564,
      "Ġplain": 2565,
      "Ġplaced": 2566,
      "Ġtwel": 2567,
      "Ġperceive": 2568,
      "Ġdivide": 2569,
      "Ġobtain": 2570,
      "Ġguil": 2571,
      "Ġpeace": 2572,
      "Ġbecoming": 2573,
      "Ġcontrary": 2574,
      "Ġakin": 2575,
      "Ġfortun": 2576,
      "?--": 2577,
      "But": 2578,
      "sal": 2579,
      "Ġtaking": 2580,
      "Ġwent": 2581,
      "Ġbre": 2582,
      "Ġcle": 2583,
      "orrow": 2584,
      "icians": 2585,
      "Ġreve": 2586,
      "Ġrevol": 2587,
      "ify": 2588,
      "Ġkill": 2589,
      "Ġstars": 2590,
      "Ġchief": 2591,
      "plic": 2592,
      "otten": 2593,
      "Ġfriendship": 2594,
      "Ġasking": 2595,
      "Ġkindred": 2596,
      "Ġpossib": 2597,
      "Ġslaves": 2598,
      "Ġpurpose": 2599,
      "Ġhearing": 2600,
      "Ġapply": 2601,
      "Ġcorrupt": 2602,
      "Ġadvise": 2603,
      "Ġimitation": 2604,
      "Ġdraw": 2605,
      "pleasure": 2606,
      "Ġhighest": 2607,
      "Ġvalue": 2608,
      "Ġexcellent": 2609,
      "bus": 2610,
      "lers": 2611,
      "ply": 2612,
      "round": 2613,
      "your": 2614,
      "Ġavoid": 2615,
      "outh": 2616,
      "Ġmult": 2617,
      "ruction": 2618,
      "ĠTheodorus": 2619,
      "Ġabsolute": 2620,
      "ortions": 2621,
      "Ġtrou": 2622,
      "rength": 2623,
      "Ġquick": 2624,
      "Ġenquire": 2625,
      "ĠLys": 2626,
      "mean": 2627,
      "ification": 2628,
      "Ġespecially": 2629,
      "Ġwritten": 2630,
      "Ġconcerned": 2631,
      "IC": 2632,
      "apt": 2633,
      "ele": 2634,
      "every": 2635,
      "iod": 2636,
      "ns": 2637,
      "opin": 2638,
      "ora": 2639,
      "aker": 2640,
      "Ġmoving": 2641,
      "Ġstud": 2642,
      "Ġconsequ": 2643,
      "Ġexcept": 2644,
      "ived": 2645,
      "Ġunable": 2646,
      "ĠCrit": 2647,
      "Ġimpress": 2648,
      "Ġterms": 2649,
      "Ġproduced": 2650,
      "Ġharmony": 2651,
      "Ġlarger": 2652,
      "Ġcompelled": 2653,
      "Ġmemory": 2654,
      "Ġtriangles": 2655,
      ");": 2656,
      "bes": 2657,
      "cour": 2658,
      "fortun": 2659,
      "mis": 2660,
      "ux": 2661,
      "uals": 2662,
      "Ġsong": 2663,
      "Ġbus": 2664,
      "Ġhigh": 2665,
      "Ġfive": 2666,
      "Ġdue": 2667,
      "legis": 2668,
      "Ġheart": 2669,
      "Ġled": 2670,
      "str": 2671,
      "Ġshort": 2672,
      "Ġsuper": 2673,
      "Ġunlike": 2674,
      "Ġthinking": 2675,
      "Ġnatures": 2676,
      "ording": 2677,
      "formed": 2678,
      "Ġgenerally": 2679,
      "Ġinstit": 2680,
      "knowled": 2681,
      "Ġsimple": 2682,
      "Ġspace": 2683,
      "Ġunderstanding": 2684,
      "Ġlearning": 2685,
      "Ġexplanation": 2686,
      "ĠAthens": 2687,
      "Ġpersuade": 2688,
      "Ġdelight": 2689,
      "himself": 2690,
      "Ġgentle": 2691,
      "ĠExactly": 2692,
      "Ġbrother": 2693,
      "Ġsyll": 2694,
      "BOY": 2695,
      "Now": 2696,
      "ues": 2697,
      "Ġbes": 2698,
      "Ġoffe": 2699,
      "itary": 2700,
      "Ġdie": 2701,
      "Ġones": 2702,
      "Ġang": 2703,
      "urally": 2704,
      "Ġmot": 2705,
      "istent": 2706,
      "Ġparticles": 2707,
      "mooth": 2708,
      "Ġholy": 2709,
      "themselves": 2710,
      "upon": 2711,
      "Ġmarri": 2712,
      "Ġrequired": 2713,
      "Ġcircle": 2714,
      "Ġhigher": 2715,
      "Ġindividual": 2716,
      "Ġprobably": 2717,
      "Ġintelligence": 2718,
      "Ġbuild": 2719,
      "Ġwardens": 2720,
      "cit": 2721,
      "sim": 2722,
      "ze": 2723,
      "ister": 2724,
      "Ġpast": 2725,
      "ified": 2726,
      "ented": 2727,
      "ctions": 2728,
      "aded": 2729,
      "Ġexact": 2730,
      "Ġvoluntarily": 2731,
      "place": 2732,
      "bey": 2733,
      "Ġrate": 2734,
      "abl": 2735,
      "Ġrules": 2736,
      "orses": 2737,
      "Ġground": 2738,
      "Ġpassion": 2739,
      "Ġcharge": 2740,
      "princi": 2741,
      "ĠMeg": 2742,
      "Ġmentioned": 2743,
      "follow": 2744,
      "Ġdoctrine": 2745,
      "Ġsolid": 2746,
      "NIC": 2747,
      "ps": 2748,
      "sing": 2749,
      "Ġtra": 2750,
      "inary": 2751,
      "attle": 2752,
      "Ġhusband": 2753,
      "ann": 2754,
      "anim": 2755,
      "leep": 2756,
      "Ġgain": 2757,
      "Ġlay": 2758,
      "Ġline": 2759,
      "ĠTell": 2760,
      "illus": 2761,
      "change": 2762,
      "Ġkings": 2763,
      "Ġconn": 2764,
      "Ġvice": 2765,
      "Ġvisible": 2766,
      "Ġlikeness": 2767,
      "ĠYet": 2768,
      "Ġchance": 2769,
      "Ġacknowledge": 2770,
      "Ġrich": 2771,
      "ĠNor": 2772,
      "Ġperception": 2773,
      "Ġclaim": 2774,
      "Ġbeloved": 2775,
      "Ġintention": 2776,
      "Ġearnest": 2777,
      "Ġdistribut": 2778,
      "Ġmode": 2779,
      "Ġcolour": 2780,
      "Ġproportion": 2781,
      "Ġsource": 2782,
      "fully": 2783,
      "Ġtwelve": 2784,
      "NICIAS": 2785,
      "bs": 2786,
      "cise": 2787,
      "had": 2788,
      "mind": 2789,
      "ties": 2790,
      "yph": 2791,
      "rel": 2792,
      "Ġsign": 2793,
      "Ġbarbar": 2794,
      "Ġmil": 2795,
      "Ġhome": 2796,
      "Ġheat": 2797,
      "Ġlisten": 2798,
      "Ġlaugh": 2799,
      "Ġassem": 2800,
      "Ġsec": 2801,
      "Ġconqu": 2802,
      "plex": 2803,
      "Ġbodily": 2804,
      "exam": 2805,
      "Ġherself": 2806,
      "mitted": 2807,
      "Ġafterwards": 2808,
      "Ġconsidering": 2809,
      "Ġfaire": 2810,
      "Ġenter": 2811,
      "medi": 2812,
      "Ġobjects": 2813,
      "consider": 2814,
      "Ġimprove": 2815,
      "Ġdeny": 2816,
      "Ġassume": 2817,
      "Ġtradition": 2818,
      "Ġcentre": 2819,
      "Ġagreement": 2820,
      "What": 2821,
      "dd": 2822,
      "hab": 2823,
      "mot": 2824,
      "swe": 2825,
      "true": 2826,
      "wis": 2827,
      "yal": 2828,
      "Ġly": 2829,
      "Ġver": 2830,
      "Ġtreat": 2831,
      "Ġhorses": 2832,
      "Ġfavour": 2833,
      "Ġfashion": 2834,
      "Ġintrod": 2835,
      "icate": 2836,
      "always": 2837,
      "Ġshown": 2838,
      "Ġimpl": 2839,
      "Ġjustly": 2840,
      "Ġcold": 2841,
      "Ġregular": 2842,
      "Ġcompound": 2843,
      "tered": 2844,
      "others": 2845,
      "Ġdescribe": 2846,
      "respo": 2847,
      "Ġsacred": 2848,
      "Ġutterly": 2849,
      "CRITO": 2850,
      "Ġauthority": 2851,
      "Ġspirit": 2852,
      "Ġbusiness": 2853,
      "ec": 2854,
      "gs": 2855,
      "iades": 2856,
      "sue": 2857,
      "tri": 2858,
      "two": 2859,
      "Ġinform": 2860,
      "Ġrefer": 2861,
      "Ġreverse": 2862,
      "Ġant": 2863,
      "aint": 2864,
      "Ġforce": 2865,
      "pol": 2866,
      "Ġstream": 2867,
      "ĠSolon": 2868,
      "ĠWill": 2869,
      "Ġabs": 2870,
      "Ġpos": 2871,
      "ends": 2872,
      "Ġpreced": 2873,
      "Ġqualities": 2874,
      "Ġplan": 2875,
      "Ġdiffer": 2876,
      "Ġruler": 2877,
      "hyth": 2878,
      "Ġblame": 2879,
      "therefore": 2880,
      "ĠState": 2881,
      "Ġindividuals": 2882,
      "Ġproduce": 2883,
      "question": 2884,
      "Ġlegislation": 2885,
      "called": 2886,
      "ĠMeno": 2887,
      "opinion": 2888,
      "There": 2889,
      "creat": 2890,
      "ond": 2891,
      "soul": 2892,
      "inc": 2893,
      "Ġoffic": 2894,
      "ency": 2895,
      "Ġpil": 2896,
      "Ġdut": 2897,
      "icias": 2898,
      "Ġreality": 2899,
      "ational": 2900,
      "Ġstrength": 2901,
      "Ġsees": 2902,
      "Ġdepri": 2903,
      "Ġarms": 2904,
      "Ġprefer": 2905,
      "ĠPers": 2906,
      "uthyph": 2907,
      "ĠLaches": 2908,
      "ĠHere": 2909,
      "Ġinterpre": 2910,
      "Ġexpression": 2911,
      "ĠAny": 2912,
      "Ġdeclare": 2913,
      "Ġenemies": 2914,
      "ĠAgain": 2915,
      "ĠMegillus": 2916,
      "ai": 2917,
      "cest": 2918,
      "certain": 2919,
      "father": 2920,
      "iar": 2921,
      "lo": 2922,
      "rus": 2923,
      "heno": 2924,
      "ref": 2925,
      "Ġsof": 2926,
      "Ġsmooth": 2927,
      "ators": 2928,
      "Ġbound": 2929,
      "oured": 2930,
      "Ġmouth": 2931,
      "itive": 2932,
      "Ġdream": 2933,
      "Ġeternal": 2934,
      "Ġge": 2935,
      "idence": 2936,
      "ames": 2937,
      "urable": 2938,
      "ils": 2939,
      "Ġgoes": 2940,
      "Ġsell": 2941,
      "Ġdepart": 2942,
      "Ġlikes": 2943,
      "cib": 2944,
      "beg": 2945,
      "Ġeverything": 2946,
      "Ġopinions": 2947,
      "Ġrulers": 2948,
      "Ġbelow": 2949,
      "ivers": 2950,
      "Ġthoughts": 2951,
      "Ġfalsehood": 2952,
      "Ġspoke": 2953,
      "Ġcourageous": 2954,
      "Ġwriting": 2955,
      "Ġeasy": 2956,
      "Ġdiscover": 2957,
      "Ġpractice": 2958,
      "ĠPhaed": 2959,
      "Ġrepeat": 2960,
      "Ġdistinct": 2961,
      "earth": 2962,
      "Ġfreeman": 2963,
      "Ġsweet": 2964,
      "against": 2965,
      "Ġpatient": 2966,
      "Ġinfluence": 2967,
      "uthyphro": 2968,
      "henomen": 2969,
      "In": 2970,
      "dys": 2971,
      "friend": 2972,
      "pass": 2973,
      "reason": 2974,
      "Ġsaw": 2975,
      "Ġsav": 2976,
      "Ġsick": 2977,
      "Ġbrave": 2978,
      "Ġfixed": 2979,
      "Ġbehalf": 2980,
      "see": 2981,
      "Ġnotions": 2982,
      "urely": 2983,
      "Ġexternal": 2984,
      "Ġalmost": 2985,
      "Ġalike": 2986,
      "Ġarise": 2987,
      "Ġdishonour": 2988,
      "Ġagora": 2989,
      "aged": 2990,
      "ption": 2991,
      "ishing": 2992,
      "idered": 2993,
      "ĠMy": 2994,
      "Ġdivisions": 2995,
      "Ġimpart": 2996,
      "comm": 2997,
      "Ġcompared": 2998,
      "Ġconsideration": 2999,
      "Ġstrange": 3000,
      "osen": 3001,
      "Ġexamine": 3002,
      "Ġroyal": 3003,
      "Ġtemperate": 3004,
      "equal": 3005,
      "Ġforget": 3006,
      "Ġnearly": 3007,
      "Ġimportant": 3008,
      "pired": 3009,
      "Ġmotions": 3010,
      "Ġmarriage": 3011,
      ".âĢĻ": 3012,
      ".âĢĿ": 3013,
      "gress": 3014,
      "ogy": 3015,
      "pen": 3016,
      "yond": 3017,
      "argu": 3018,
      "Ġheld": 3019,
      "sec": 3020,
      "irty": 3021,
      "Ġsho": 3022,
      "Ġstat": 3023,
      "Ġvent": 3024,
      "ĠWould": 3025,
      "Ġjo": 3026,
      "fection": 3027,
      "ploy": 3028,
      "ĠEuthyphro": 3029,
      "Ġcontro": 3030,
      "mog": 3031,
      "Ġhappen": 3032,
      "Ġoffice": 3033,
      "Ġchari": 3034,
      "Ġreflect": 3035,
      "ĠAthenian": 3036,
      "Ġcolours": 3037,
      "Ġprophe": 3038,
      "Ġlarge": 3039,
      "Ġinclud": 3040,
      "Ġservice": 3041,
      "Ġdirection": 3042,
      "Ġenemy": 3043,
      "Ġdeemed": 3044,
      "Ġdisgraceful": 3045,
      "cibiades": 3046,
      ",âĢĻ": 3047,
      "jud": 3048,
      "matter": 3049,
      "inv": 3050,
      "ishes": 3051,
      "Ġbase": 3052,
      "Ġgif": 3053,
      "Ġwholly": 3054,
      "ithmet": 3055,
      "Ġconcl": 3056,
      "Ġargue": 3057,
      "Ġworst": 3058,
      "raction": 3059,
      "Ġcoming": 3060,
      "Ġcomposed": 3061,
      "ongue": 3062,
      "Ġacknowled": 3063,
      "Ġnaturally": 3064,
      "Ġrhyth": 3065,
      "Ġpartly": 3066,
      "rence": 3067,
      "Ġquar": 3068,
      "Ġperplex": 3069,
      "ĠMay": 3070,
      "Ġimpiety": 3071,
      "els": 3072,
      "ilebus": 3073,
      "Ġcompany": 3074,
      "Ġwanted": 3075,
      "suf": 3076,
      "hapsod": 3077,
      "Ġpossession": 3078,
      "letus": 3079,
      "Ġconcerning": 3080,
      "ĠProtagoras": 3081,
      "Ġconstit": 3082,
      "Ġhunting": 3083,
      "Ġneighbour": 3084,
      "dysse": 3085,
      "mogenes": 3086,
      ";âĢĶ": 3087,
      "?âĢĶ": 3088,
      "Greek": 3089,
      "dess": 3090,
      "gr": 3091,
      "iet": 3092,
      "Ġwine": 3093,
      "rees": 3094,
      "Ġbit": 3095,
      "Ġcens": 3096,
      "Ġfru": 3097,
      "Ġportion": 3098,
      "Ġphenomen": 3099,
      "Ġbeyond": 3100,
      "Ġdri": 3101,
      "ently": 3102,
      "Ġanger": 3103,
      "Ġancest": 3104,
      "state": 3105,
      "Ġnon": 3106,
      "Ġgot": 3107,
      "Ġvoice": 3108,
      "ĠHipp": 3109,
      "Ġyours": 3110,
      "aven": 3111,
      "ĠNicias": 3112,
      "Ġlost": 3113,
      "prehe": 3114,
      "Ġspeaks": 3115,
      "Ġwiser": 3116,
      "Ġstrangers": 3117,
      "sub": 3118,
      "Ġremaining": 3119,
      "Ġlooking": 3120,
      "Ġuniversal": 3121,
      "Ġinstruction": 3122,
      "Ġmasters": 3123,
      "ĠStates": 3124,
      "Ġentirely": 3125,
      "Ġvictory": 3126,
      "Ġexhib": 3127,
      "Ġsacrific": 3128,
      "Ġguilty": 3129,
      "aly": 3130,
      "cil": 3131,
      "eal": 3132,
      "king": 3133,
      "mar": 3134,
      "never": 3135,
      "pur": 3136,
      "uce": 3137,
      "words": 3138,
      "Ġ1": 3139,
      "Ġfast": 3140,
      "Ġinference": 3141,
      "Ġpatter": 3142,
      "aries": 3143,
      "ales": 3144,
      "thus": 3145,
      "ster": 3146,
      "owers": 3147,
      "Ġexceed": 3148,
      "Ġexped": 3149,
      "Ġaltogether": 3150,
      "ouses": 3151,
      "Ġago": 3152,
      "Ġchosen": 3153,
      "ĠNay": 3154,
      "ĠOne": 3155,
      "Ġaccus": 3156,
      "ferent": 3157,
      "ucing": 3158,
      "Ġcommit": 3159,
      "epublic": 3160,
      "anything": 3161,
      "Ġpossessed": 3162,
      "world": 3163,
      "Ġillust": 3164,
      "Ġdirect": 3165,
      "Ġchanges": 3166,
      "Ġviolence": 3167,
      "Ġphilosophers": 3168,
      "CRITIAS": 3169,
      "Ġmodern": 3170,
      "Ġaware": 3171,
      "Ġsuspect": 3172,
      "ĠWhich": 3173,
      "citiz": 3174,
      "Ġpilot": 3175,
      "argument": 3176,
      "?'": 3177,
      "He": 3178,
      "coun": 3179,
      "made": 3180,
      "oppos": 3181,
      "phe": 3182,
      "tell": 3183,
      "take": 3184,
      "vals": 3185,
      "ĠU": 3186,
      "rew": 3187,
      "Ġsleep": 3188,
      "Ġmid": 3189,
      "essel": 3190,
      "ank": 3191,
      "Ġface": 3192,
      "orm": 3193,
      "Ġdark": 3194,
      "Ġstory": 3195,
      "Ġdev": 3196,
      "Ġvessel": 3197,
      "ĠWho": 3198,
      "ĠCan": 3199,
      "Ġdisorder": 3200,
      "cial": 3201,
      "play": 3202,
      "Ġsoon": 3203,
      "Ġrational": 3204,
      "orders": 3205,
      "Ġperceiv": 3206,
      "Ġdesign": 3207,
      "Ġeng": 3208,
      "ability": 3209,
      "philoso": 3210,
      "many": 3211,
      "Ġnamed": 3212,
      "Ġassist": 3213,
      "Ġsphere": 3214,
      "Ġheavens": 3215,
      "Ġcorrespo": 3216,
      "Ġguardian": 3217,
      "Ġfairly": 3218,
      "saying": 3219,
      "Ġsuffering": 3220,
      "ĠMeletus": 3221,
      "Ġexcellence": 3222,
      "Ġappoint": 3223,
      "regard": 3224,
      "ĠPerhaps": 3225,
      "ĠAlcibiades": 3226,
      "Ġsilver": 3227,
      "Ġhurt": 3228,
      "Ġnoblest": 3229,
      "Ġpossibly": 3230,
      "Ġmilitary": 3231,
      "Th": 3232,
      "bles": 3233,
      "fers": 3234,
      "ius": 3235,
      "much": 3236,
      "og": 3237,
      "spr": 3238,
      "virtue": 3239,
      "view": 3240,
      "Ġtongue": 3241,
      "ndeed": 3242,
      "Ġsit": 3243,
      "Ġbattle": 3244,
      "Ġfreed": 3245,
      "itation": 3246,
      "Ġwhite": 3247,
      "Ġisland": 3248,
      "Ġyes": 3249,
      "Ġhero": 3250,
      "also": 3251,
      "Ġash": 3252,
      "Ġanswe": 3253,
      "ĠAm": 3254,
      "Ġund": 3255,
      "ading": 3256,
      "Ġotherwise": 3257,
      "Ġconception": 3258,
      "Ġdiso": 3259,
      "Ġdisci": 3260,
      "Ġenact": 3261,
      "latter": 3262,
      "Ġconsidered": 3263,
      "iverse": 3264,
      "Ġcompan": 3265,
      "Ġprior": 3266,
      "Ġsubjects": 3267,
      "Ġharmon": 3268,
      "Ġpersuaded": 3269,
      "Ġoccasion": 3270,
      "Ġfamil": 3271,
      "Ġdecide": 3272,
      "ĠHermogenes": 3273,
      "Ġtraining": 3274,
      "Ġpolitical": 3275,
      "Ġassert": 3276,
      "Ġships": 3277,
      "Ġaffections": 3278,
      "Ġderived": 3279,
      "Ġneglect": 3280,
      "Ġfortune": 3281,
      "Ġmultitude": 3282,
      "meaning": 3283,
      "wisdom": 3284,
      "Ġduty": 3285,
      "dysseus": 3286,
      "Ġanswered": 3287,
      "For": 3288,
      "ched": 3289,
      "ium": 3290,
      "jo": 3291,
      "mat": 3292,
      "pic": 3293,
      "sl": 3294,
      "tus": 3295,
      "uct": 3296,
      "Ġ2": 3297,
      "Ġwalk": 3298,
      "Ġsal": 3299,
      "Ġborn": 3300,
      "Ġcur": 3301,
      "Ġcast": 3302,
      "Ġprom": 3303,
      "itable": 3304,
      "Ġdu": 3305,
      "icus": 3306,
      "iction": 3307,
      "ĠIndeed": 3308,
      "iment": 3309,
      "thod": 3310,
      "thought": 3311,
      "ids": 3312,
      "Ġmeant": 3313,
      "run": 3314,
      "Ġconvers": 3315,
      "Ġuses": 3316,
      "Ġalter": 3317,
      "Ġaround": 3318,
      "âĢľ": 3319,
      "Ġdissol": 3320,
      "Ġdisposed": 3321,
      "Ġimpossible": 3322,
      "inew": 3323,
      "Ġtwice": 3324,
      "Ġpleases": 3325,
      "Ġboy": 3326,
      "ected": 3327,
      "Ġobvious": 3328,
      "necess": 3329,
      "Ġcompar": 3330,
      "Ġwanting": 3331,
      "Ġsimply": 3332,
      "without": 3333,
      "ialect": 3334,
      "willing": 3335,
      "Ġheavy": 3336,
      "Ġyounger": 3337,
      "Ġrhetorician": 3338,
      "Ġperfectly": 3339,
      "Ġemploy": 3340,
      "Ġreceiving": 3341,
      "Ġincre": 3342,
      "ĠPhilebus": 3343,
      "Ġcontinue": 3344,
      "Ġwonderful": 3345,
      "Ġdestroy": 3346,
      "Ġdefence": 3347,
      "Ġmonth": 3348,
      "Ġacquired": 3349,
      "belie": 3350,
      "Ġfellow": 3351,
      "Ġsuccess": 3352,
      "evil": 3353,
      "cisely": 3354,
      "Ġgeomet": 3355,
      "Ġgifts": 3356,
      "ĠHippias": 3357,
      "Ġashamed": 3358,
      "'?": 3359,
      "Let": 3360,
      "best": 3361,
      "cor": 3362,
      "cent": 3363,
      "iest": 3364,
      "ience": 3365,
      "lt": 3366,
      "sed": 3367,
      "side": 3368,
      "yl": 3369,
      "Ġtend": 3370,
      "Ġopp": 3371,
      "Ġobey": 3372,
      "Ġsqu": 3373,
      "Ġbless": 3374,
      "Ġmass": 3375,
      "Ġhate": 3376,
      "Ġful": 3377,
      "Ġfem": 3378,
      "Ġpiety": 3379,
      "Ġears": 3380,
      "aled": 3381,
      "Ġassent": 3382,
      "child": 3383,
      "estig": 3384,
      "poll": 3385,
      "Ġusing": 3386,
      "Ġrhapsod": 3387,
      "Ġtrust": 3388,
      "Ġtrained": 3389,
      "Ġdesp": 3390,
      "Ġcourts": 3391,
      "class": 3392,
      "ĠEvery": 3393,
      "Ġcontri": 3394,
      "Ġcontests": 3395,
      "poses": 3396,
      "manner": 3397,
      "Ġpainful": 3398,
      "Ġattend": 3399,
      "Ġpassing": 3400,
      "Ġpassed": 3401,
      "Ġinvoluntary": 3402,
      "Ġmarrow": 3403,
      "Ġpossessions": 3404,
      "Ġutmost": 3405,
      "Ġpersuasion": 3406,
      "Ġmiserable": 3407,
      "ĠThus": 3408,
      "Ġskill": 3409,
      "Ġinjury": 3410,
      "Ġaccomp": 3411,
      "Ġdispute": 3412,
      "Ġbenefit": 3413,
      "according": 3414,
      "Ġestabl": 3415,
      "Ġmingled": 3416,
      "appear": 3417,
      "ountains": 3418,
      "ĠLacedaemonians": 3419,
      "legislat": 3420,
      "principle": 3421,
      "habit": 3422,
      "motion": 3423,
      "Ġposition": 3424,
      "Ġventure": 3425,
      "spring": 3426,
      "..": 3427,
      "bu": 3428,
      "life": 3429,
      "ners": 3430,
      "pes": 3431,
      "rod": 3432,
      "Ġwrest": 3433,
      "rehe": 3434,
      "ont": 3435,
      "Ġthirty": 3436,
      "Ġpie": 3437,
      "Ġportions": 3438,
      "thes": 3439,
      "theless": 3440,
      "ĠIm": 3441,
      "ruct": 3442,
      "estiv": 3443,
      "Ġstep": 3444,
      "Ġvoluntary": 3445,
      "Ġliable": 3446,
      "Ġproc": 3447,
      "ratyl": 3448,
      "Ġcomprehe": 3449,
      "ively": 3450,
      "Ġlawg": 3451,
      "agree": 3452,
      "Ġspecies": 3453,
      "Ġpleased": 3454,
      "Ġloved": 3455,
      "Ġboys": 3456,
      "Ġcourses": 3457,
      "Ġinstance": 3458,
      "Ġaccordance": 3459,
      "Ġimages": 3460,
      "ĠDoes": 3461,
      "ails": 3462,
      "natural": 3463,
      "Ġaffair": 3464,
      "possess": 3465,
      "Ġimitate": 3466,
      "uredly": 3467,
      "ĠHellas": 3468,
      "Ġreceives": 3469,
      "Ġdiseases": 3470,
      "Ġseparate": 3471,
      "speak": 3472,
      "Ġprayers": 3473,
      "Ġframe": 3474,
      "understand": 3475,
      "Ġassigned": 3476,
      "Ġfairest": 3477,
      "ĠPhaedrus": 3478,
      "Ġconclusion": 3479,
      "Ġbitter": 3480,
      "Ġancestors": 3481,
      ",âĢĿ": 3482,
      ".),": 3483,
      "IM": 3484,
      "making": 3485,
      "nce": 3486,
      "name": 3487,
      "power": 3488,
      "ats": 3489,
      "isto": 3490,
      "Ġmine": 3491,
      "Ġmale": 3492,
      "answer": 3493,
      "Ġpar": 3494,
      "Ġpal": 3495,
      "Ġpowers": 3496,
      "Ġbeings": 3497,
      "ompare": 3498,
      "Ġlab": 3499,
      "thy": 3500,
      "urning": 3501,
      "Ġshame": 3502,
      "rible": 3503,
      "Ġmanage": 3504,
      "Ġsugg": 3505,
      "Ġexile": 3506,
      "Ġarises": 3507,
      "Ġliqu": 3508,
      "Ġprot": 3509,
      "rated": 3510,
      "Ġunity": 3511,
      "Ġpoor": 3512,
      "perfect": 3513,
      "Ġspeaker": 3514,
      "achus": 3515,
      "ized": 3516,
      "intellig": 3517,
      "Ġintended": 3518,
      "Ġarguments": 3519,
      "Ġslow": 3520,
      "Ġblack": 3521,
      "Ġinvoluntarily": 3522,
      "Ġlegislators": 3523,
      "Ġsingular": 3524,
      "Ġpunish": 3525,
      "Ġobserved": 3526,
      "Ġsurround": 3527,
      "work": 3528,
      "Ġservants": 3529,
      "Ġteaching": 3530,
      "Ġviolent": 3531,
      "Ġcompleted": 3532,
      "general": 3533,
      "Ġmadness": 3534,
      "number": 3535,
      "Ġattribute": 3536,
      "Ġexercise": 3537,
      "Ġimmortal": 3538,
      "Ġdefend": 3539,
      "Ġaccomplished": 3540,
      "elements": 3541,
      "Ġsyllables": 3542,
      "Ġassembly": 3543,
      "Ġphenomena": 3544,
      "ĠImpossible": 3545,
      "Compare": 3546,
      "az": 3547,
      "face": 3548,
      "hand": 3549,
      "lig": 3550,
      "make": 3551,
      "pet": 3552,
      "ric": 3553,
      "Ġtask": 3554,
      "Ġwall": 3555,
      "Ġwound": 3556,
      "Ġsa": 3557,
      "Ġmer": 3558,
      "Ġhon": 3559,
      "nothing": 3560,
      "iting": 3561,
      "Ġbear": 3562,
      "Ġdance": 3563,
      "lection": 3564,
      "usement": 3565,
      "vel": 3566,
      "ĠIon": 3567,
      "imin": 3568,
      "Ġweaving": 3569,
      "ross": 3570,
      "chm": 3571,
      "cho": 3572,
      "Ġseed": 3573,
      "Ġsearch": 3574,
      "Ġarm": 3575,
      "ĠCratyl": 3576,
      "ached": 3577,
      "Ġpoem": 3578,
      "ager": 3579,
      "righteous": 3580,
      "Ġloss": 3581,
      "Ġenv": 3582,
      "Ġprim": 3583,
      "ĠMore": 3584,
      "Ġdivin": 3585,
      "Ġimpious": 3586,
      "Ġappeared": 3587,
      "intend": 3588,
      "Ġbegan": 3589,
      "Ġtook": 3590,
      "Ġexists": 3591,
      "Ġolder": 3592,
      "Ġtemple": 3593,
      "Ġeducated": 3594,
      "Ġfathers": 3595,
      "Ġadded": 3596,
      "Ġaddition": 3597,
      "Ġprevent": 3598,
      "Ġinspired": 3599,
      "Ġhereafter": 3600,
      "Ġdecision": 3601,
      "ĠRepublic": 3602,
      "Ġseparated": 3603,
      "Ġcontrad": 3604,
      "Ġprayer": 3605,
      "Ġbelongs": 3606,
      "Ġacquis": 3607,
      "existence": 3608,
      "Ġarrived": 3609,
      "Ġswift": 3610,
      "Ġconsequence": 3611,
      "Ġimpression": 3612,
      "Ġinstitutions": 3613,
      "Ġbesides": 3614,
      "Ġpattern": 3615,
      "inews": 3616,
      "Ġfulf": 3617,
      "If": 3618,
      "This": 3619,
      "ee": 3620,
      "fter": 3621,
      "hon": 3622,
      "long": 3623,
      "iny": 3624,
      "isure": 3625,
      "Ġmat": 3626,
      "ancing": 3627,
      "Ġinf": 3628,
      "Ġhence": 3629,
      "Ġorph": 3630,
      "Ġrepresent": 3631,
      "third": 3632,
      "owed": 3633,
      "ament": 3634,
      "Ġmel": 3635,
      "pend": 3636,
      "Ġstra": 3637,
      "Ġleaving": 3638,
      "ĠSome": 3639,
      "ĠSurely": 3640,
      "Ġours": 3641,
      "Ġamount": 3642,
      "Ġletter": 3643,
      "Ġadapt": 3644,
      "ĠGreek": 3645,
      "Ġtwenty": 3646,
      "Ġundergo": 3647,
      "Ġremind": 3648,
      "Ġintemper": 3649,
      "comes": 3650,
      "Ġdiscours": 3651,
      "Ġshepher": 3652,
      "Ġhappiness": 3653,
      "Ġbelief": 3654,
      "Ġnecessarily": 3655,
      "Ġtrial": 3656,
      "Ġsupposing": 3657,
      "cellent": 3658,
      "Ġoccup": 3659,
      "Ġfamous": 3660,
      "Ġdetermined": 3661,
      "Ġdrinking": 3662,
      "Ġsounds": 3663,
      "Ġprovided": 3664,
      "Ġescap": 3665,
      "diffic": 3666,
      "laws": 3667,
      "Ġpolitics": 3668,
      "Ġrecollect": 3669,
      "Ġtyrant": 3670,
      "Ġdeeds": 3671,
      "Ġforeign": 3672,
      "ĠBecause": 3673,
      "ĠLysias": 3674,
      "mediate": 3675,
      "Ġsacrifices": 3676,
      "ealous": 3677,
      "citizens": 3678,
      "Ġsquare": 3679,
      "bing": 3680,
      "che": 3681,
      "circ": 3682,
      "kon": 3683,
      "old": 3684,
      "port": 3685,
      "rhetoric": 3686,
      "sm": 3687,
      "ĠJ": 3688,
      "Ġsorrow": 3689,
      "isters": 3690,
      "Ġbright": 3691,
      "Ġmurd": 3692,
      "Ġmixture": 3693,
      "Ġhouses": 3694,
      "iti": 3695,
      "Ġgra": 3696,
      "Ġlose": 3697,
      "verty": 3698,
      "ander": 3699,
      "Ġstone": 3700,
      "Ġexec": 3701,
      "Ġliber": 3702,
      "Ġproved": 3703,
      "Ġunion": 3704,
      "ĠCh": 3705,
      "beaut": 3706,
      "ock": 3707,
      "anged": 3708,
      "Ġordered": 3709,
      "Ġclo": 3710,
      "contr": 3711,
      "Ġgenerals": 3712,
      "Ġwisest": 3713,
      "neither": 3714,
      "Ġjudged": 3715,
      "Ġcreature": 3716,
      "Ġappearance": 3717,
      "Ġaddress": 3718,
      "Ġaffir": 3719,
      "Ġcaused": 3720,
      "Ġpractise": 3721,
      "Ġattained": 3722,
      "Ġchanged": 3723,
      "Ġframed": 3724,
      "culation": 3725,
      "Ġdistinction": 3726,
      "Ġriches": 3727,
      "Ġcommunion": 3728,
      "Ġsubstance": 3729,
      "Ġstudy": 3730,
      "Ġlyre": 3731,
      "Ġstatement": 3732,
      "Ġchariote": 3733,
      "ithmetic": 3734,
      "Ġduly": 3735,
      "legislator": 3736,
      "ĠCratylus": 3737,
      "Socrates": 3738,
      "br": 3739,
      "cus": 3740,
      "ging": 3741,
      "pra": 3742,
      "pun": 3743,
      "rough": 3744,
      "Ġ3": 3745,
      "Ġing": 3746,
      "Ġsides": 3747,
      "Ġcra": 3748,
      "Ġfilled": 3749,
      "Ġbehold": 3750,
      "Ġdi": 3751,
      "stances": 3752,
      "Ġnar": 3753,
      "Ġforb": 3754,
      "Ġmethod": 3755,
      "char": 3756,
      "Ġsupp": 3757,
      "adv": 3758,
      "Ġmoon": 3759,
      "Ġmoist": 3760,
      "Ġdefect": 3761,
      "Ġvot": 3762,
      "reath": 3763,
      "racy": 3764,
      "Ġunequal": 3765,
      "âĢĺ": 3766,
      "Ġages": 3767,
      "plain": 3768,
      "lease": 3769,
      "Ġevident": 3770,
      "Ġouter": 3771,
      "truth": 3772,
      "ĠOdysseus": 3773,
      "Ġfolly": 3774,
      "ĠMuses": 3775,
      "Ġimply": 3776,
      "ĠDid": 3777,
      "Ġwishes": 3778,
      "Ġslay": 3779,
      "Ġdifferences": 3780,
      "known": 3781,
      "Ġseemed": 3782,
      "Ġcounsel": 3783,
      "Ġopposed": 3784,
      "prod": 3785,
      "Ġmark": 3786,
      "Ġreputation": 3787,
      "Ġinspiration": 3788,
      "does": 3789,
      "Ġholds": 3790,
      "Ġinstruments": 3791,
      "Ġsurpr": 3792,
      "Ġmeeting": 3793,
      "something": 3794,
      "Ġconvicted": 3795,
      "Ġproduces": 3796,
      "Ġdistinguished": 3797,
      "different": 3798,
      "Ġrecogn": 3799,
      "Ġtyrann": 3800,
      "Ġelder": 3801,
      "Ġfifth": 3802,
      "Ġveins": 3803,
      "ĠCritias": 3804,
      "Ġsoft": 3805,
      "Ġacknowledged": 3806,
      "ĠStatesman": 3807,
      "Ġfemale": 3808,
      "Ġsuggest": 3809,
      "When": 3810,
      "cher": 3811,
      "fact": 3812,
      "false": 3813,
      "happ": 3814,
      "lover": 3815,
      "ming": 3816,
      "mus": 3817,
      "pent": 3818,
      "sc": 3819,
      "sp": 3820,
      "sions": 3821,
      "uous": 3822,
      "wing": 3823,
      "yth": 3824,
      "youn": 3825,
      "Ġz": 3826,
      "Ġoath": 3827,
      "Ġopen": 3828,
      "reme": 3829,
      "Ġbind": 3830,
      "Ġbird": 3831,
      "Ġmixed": 3832,
      "Ġcapable": 3833,
      "Ġpict": 3834,
      "ories": 3835,
      "vere": 3836,
      "Ġsend": 3837,
      "ivil": 3838,
      "Ġvirt": 3839,
      "Ġlie": 3840,
      "Ġpropose": 3841,
      "Ġunited": 3842,
      "before": 3843,
      "Ġparty": 3844,
      "Ġprel": 3845,
      "Ġquant": 3846,
      "ordered": 3847,
      "Ġperform": 3848,
      "concer": 3849,
      "Ġearly": 3850,
      "Ġanswering": 3851,
      "Ġattention": 3852,
      "Ġslight": 3853,
      "Ġcompet": 3854,
      "Ġgrant": 3855,
      "Ġacts": 3856,
      "Ġdesired": 3857,
      "proper": 3858,
      "Ġwherefore": 3859,
      "Ġhappened": 3860,
      "Ġinvestig": 3861,
      "whole": 3862,
      "Ġoriginally": 3863,
      "Ġmisfortun": 3864,
      "Ġinstruct": 3865,
      "worthy": 3866,
      "Ġmagn": 3867,
      "Ġiron": 3868,
      "Ġsatisfied": 3869,
      "Ġfighting": 3870,
      "iddle": 3871,
      "Ġabstain": 3872,
      "Ġdeprived": 3873,
      "Ġrhythm": 3874,
      "Ġconstitution": 3875,
      "Ġfreedom": 3876,
      "Ġcomparison": 3877,
      "believe": 3878,
      "Ġaffairs": 3879,
      "bled": 3880,
      "bits": 3881,
      "der": 3882,
      "get": 3883,
      "human": 3884,
      "lant": 3885,
      "mer": 3886,
      "opt": 3887,
      "tic": 3888,
      "wr": 3889,
      "ying": 3890,
      "Ġwild": 3891,
      "read": 3892,
      "Ġsize": 3893,
      "Ġsinews": 3894,
      "Ġban": 3895,
      "Ġbones": 3896,
      "Ġmor": 3897,
      "Ġmater": 3898,
      "Ġhind": 3899,
      "Ġincons": 3900,
      "edy": 3901,
      "Ġdances": 3902,
      "Ġdaugh": 3903,
      "Ġdialect": 3904,
      "Ġyield": 3905,
      "omic": 3906,
      "Ġlower": 3907,
      "imachus": 3908,
      "Ġastr": 3909,
      "Ġrepro": 3910,
      "ĠAch": 3911,
      "ĠAss": 3912,
      "ĠApoll": 3913,
      "states": 3914,
      "urde": 3915,
      "Ġmoved": 3916,
      "Ġleisure": 3917,
      "iving": 3918,
      "ulg": 3919,
      "Ġarmy": 3920,
      "Ġprocl": 3921,
      "Ġabund": 3922,
      "ĠHave": 3923,
      "Ġjealous": 3924,
      "Ġcharm": 3925,
      "Ġchorus": 3926,
      "Ġamusement": 3927,
      "Ġsold": 3928,
      "Ġloves": 3929,
      "Ġapplied": 3930,
      "serv": 3931,
      "ĠDel": 3932,
      "ultiv": 3933,
      "Ġexisting": 3934,
      "cribed": 3935,
      "Ġcareful": 3936,
      "education": 3937,
      "Ġhonours": 3938,
      "Ġoffspring": 3939,
      "Ġcreatures": 3940,
      "Ġexplained": 3941,
      "Ġproperly": 3942,
      "ibility": 3943,
      "onsense": 3944,
      ".).": 3945,
      "Ġincapable": 3946,
      "Ġapprove": 3947,
      "ustomed": 3948,
      "Ġfacts": 3949,
      "Ġsenses": 3950,
      "appro": 3951,
      "Ġforgotten": 3952,
      "Ġpursuit": 3953,
      "Ġarrange": 3954,
      "Ġtrouble": 3955,
      "courage": 3956,
      "Ġbarbarians": 3957,
      "Ġquarrel": 3958,
      "Thus": 3959,
      "children": 3960,
      "ĠMoreover": 3961,
      "care": 3962,
      "mist": 3963,
      "mag": 3964,
      "nough": 3965,
      "pul": 3966,
      "Ġaid": 3967,
      "Ġwind": 3968,
      "real": 3969,
      "rete": 3970,
      "Ġsail": 3971,
      "Ġhol": 3972,
      "lling": 3973,
      "Ġfestiv": 3974,
      "Ġinno": 3975,
      "Ġeight": 3976,
      "Ġeager": 3977,
      "Ġgained": 3978,
      "cend": 3979,
      "ceit": 3980,
      "Ġred": 3981,
      "Ġresem": 3982,
      "Ġrequest": 3983,
      "urity": 3984,
      "ructed": 3985,
      "Ġsex": 3986,
      "Ġseason": 3987,
      "Ġexception": 3988,
      "Ġvote": 3989,
      "ĠWhether": 3990,
      "arest": 3991,
      "acy": 3992,
      "ĠHaving": 3993,
      "soci": 3994,
      "Ġsole": 3995,
      "Ġspecial": 3996,
      "whom": 3997,
      "Ġbecame": 3998,
      "Ġperpet": 3999,
      "Ġbold": 4000,
      "Ġfoot": 4001,
      "ots": 4002,
      "Ġconscious": 4003,
      "Ġwrite": 4004,
      "Ġherds": 4005,
      "posing": 4006,
      "ceptions": 4007,
      "Ġwants": 4008,
      "Ġgoddess": 4009,
      "fined": 4010,
      "Ġpurification": 4011,
      "Ġequality": 4012,
      "Ġpriests": 4013,
      "Ġadvice": 4014,
      "Ġrelig": 4015,
      "Ġextent": 4016,
      "Ġextrem": 4017,
      "Ġmistake": 4018,
      "archy": 4019,
      "Ġsciences": 4020,
      "Ġinstrument": 4021,
      "Ġdiscovery": 4022,
      "Ġspeeches": 4023,
      "Ġreckon": 4024,
      "Ġrunning": 4025,
      "Ġintelligible": 4026,
      "Ġcompel": 4027,
      "Ġrepeated": 4028,
      "Ġdestruction": 4029,
      "cannot": 4030,
      "Ġcomplete": 4031,
      "desire": 4032,
      "Ġfreemen": 4033,
      "numerable": 4034,
      "Ġwitnesses": 4035,
      "Ġfifty": 4036,
      "Ġreverence": 4037,
      "ĠAnytus": 4038,
      "Ġcorresponding": 4039,
      "ĠJust": 4040,
      "AN": 4041,
      "col": 4042,
      "eas": 4043,
      "fire": 4044,
      "give": 4045,
      "joy": 4046,
      "last": 4047,
      "mn": 4048,
      "nal": 4049,
      "portion": 4050,
      "ror": 4051,
      "ued": 4052,
      "Ġ4": 4053,
      "Ġapt": 4054,
      "inct": 4055,
      "ism": 4056,
      "Ġbone": 4057,
      "Ġmir": 4058,
      "Ġmurde": 4059,
      "Ġhour": 4060,
      "Ġhither": 4061,
      "Ġhot": 4062,
      "Ġche": 4063,
      "noble": 4064,
      "ane": 4065,
      "Ġfly": 4066,
      "Ġflatter": 4067,
      "Ġinhabit": 4068,
      "iter": 4069,
      "asure": 4070,
      "using": 4071,
      "utes": 4072,
      "Ġhearer": 4073,
      "Ġgone": 4074,
      "Ġgift": 4075,
      "Ġreference": 4076,
      "iform": 4077,
      "three": 4078,
      "ries": 4079,
      "ruly": 4080,
      "Ġsudd": 4081,
      "Ġseven": 4082,
      "Ġwhence": 4083,
      "reator": 4084,
      "Ġprogress": 4085,
      "Ġunrighteous": 4086,
      "acles": 4087,
      "Ġjoy": 4088,
      "Ġgreatly": 4089,
      "ĠNeither": 4090,
      "aste": 4091,
      "ection": 4092,
      "aching": 4093,
      "action": 4094,
      "Ġapplic": 4095,
      "Ġconsistent": 4096,
      "Ġreasons": 4097,
      "experi": 4098,
      "Ġindic": 4099,
      "positions": 4100,
      "Ġmighty": 4101,
      "Ġcompare": 4102,
      "Ġdiscer": 4103,
      "finity": 4104,
      "Ġpassages": 4105,
      "Ġpraises": 4106,
      "Ġentertain": 4107,
      "Ġterrible": 4108,
      "Ġinvol": 4109,
      "Ġapprehe": 4110,
      "Ġsecondly": 4111,
      "Ġsmaller": 4112,
      "Ġspot": 4113,
      "Ġwritings": 4114,
      "Ġcondem": 4115,
      "Ġdeliver": 4116,
      "Ġemb": 4117,
      "Ġdrachm": 4118,
      "paren": 4119,
      "priate": 4120,
      "Ġancients": 4121,
      "Ġadmir": 4122,
      "Ġmovement": 4123,
      "Ġinclude": 4124,
      "greater": 4125,
      "greatest": 4126,
      "Ġsensible": 4127,
      "ĠArist": 4128,
      "Ġpreserved": 4129,
      "Ġcowardice": 4130,
      "Ġsentence": 4131,
      "Ġsucceed": 4132,
      "Ġabstract": 4133,
      "similar": 4134,
      "Ġimprovement": 4135,
      "Ġrhapsode": 4136,
      "Ġmelod": 4137,
      "Ġadapted": 4138,
      "Ġsudden": 4139,
      "Athen": 4140,
      "TUS": 4141,
      "YTUS": 4142,
      "born": 4143,
      "cle": 4144,
      "fts": 4145,
      "gover": 4146,
      "ta": 4147,
      "ĠK": 4148,
      "Ġwing": 4149,
      "Ġsen": 4150,
      "erous": 4151,
      "Ġbri": 4152,
      "Ġcap": 4153,
      "Ġcivil": 4154,
      "Ġfat": 4155,
      "Ġfirm": 4156,
      "Ġpu": 4157,
      "Ġbeast": 4158,
      "Ġdom": 4159,
      "Ġgets": 4160,
      "separ": 4161,
      "vert": 4162,
      "Ġnour": 4163,
      "urance": 4164,
      "terday": 4165,
      "Ġkins": 4166,
      "Ġexcl": 4167,
      "Ġdep": 4168,
      "too": 4169,
      "istic": 4170,
      "Ġjest": 4171,
      "orts": 4172,
      "ume": 4173,
      "umstances": 4174,
      "Ġpoverty": 4175,
      "Ġspect": 4176,
      "Ġdesir": 4177,
      "Ġfears": 4178,
      "Ġeverywhere": 4179,
      "Ġconsent": 4180,
      "swers": 4181,
      "Ġindict": 4182,
      "Ġcool": 4183,
      "Ġtelling": 4184,
      "intention": 4185,
      "Ġherd": 4186,
      "Ġendure": 4187,
      "Ġresc": 4188,
      "Ġresol": 4189,
      "Ġacting": 4190,
      "although": 4191,
      "Ġpraised": 4192,
      "Ġsuffe": 4193,
      "Ġopposites": 4194,
      "Ġexamples": 4195,
      "Ġrefute": 4196,
      "Ġmodest": 4197,
      "Ġpoints": 4198,
      "disco": 4199,
      "Ġshows": 4200,
      "Ġholding": 4201,
      "Ġconfusion": 4202,
      "Ġcreate": 4203,
      "Ġfallen": 4204,
      "Ġimproved": 4205,
      "Ġprobable": 4206,
      "Ġglad": 4207,
      "speaking": 4208,
      "ĠAtlant": 4209,
      "Ġfancies": 4210,
      "Ġchanging": 4211,
      "between": 4212,
      "Ġmoderate": 4213,
      "Ġimportance": 4214,
      "Ġarrive": 4215,
      "ĠPericles": 4216,
      "Ġexhort": 4217,
      "Ġtouch": 4218,
      "Ġarranged": 4219,
      "Ġexpected": 4220,
      "Ġabsolutely": 4221,
      "Ġabsurd": 4222,
      "Ġoffices": 4223,
      "ĠPersians": 4224,
      "Ġdisciples": 4225,
      "Ġwrestling": 4226,
      "Ġlawgiver": 4227,
      "Ġlabour": 4228,
      "Ġmanagement": 4229,
      "Ġstraight": 4230,
      "Ġrecollection": 4231,
      "Ġquantity": 4232,
      "ĠApollo": 4233,
      "ANYTUS": 4234,
      "Gods": 4235,
      "You": 4236,
      "aos": 4237,
      "eem": 4238,
      "even": 4239,
      "ĠĠ": 4240,
      "Ġtre": 4241,
      "Ġtheory": 4242,
      "Ġbreath": 4243,
      "Ġmiddle": 4244,
      "esiod": 4245,
      "enced": 4246,
      "Ġfun": 4247,
      "Ġfurn": 4248,
      "Ġpious": 4249,
      "arp": 4250,
      "ionys": 4251,
      "utter": 4252,
      "Ġheed": 4253,
      "Ġlest": 4254,
      "Ġlines": 4255,
      "Ġweak": 4256,
      "Ġretain": 4257,
      "ifice": 4258,
      "ĠAfter": 4259,
      "stood": 4260,
      "aining": 4261,
      "ainted": 4262,
      "illes": 4263,
      "Ġmanif": 4264,
      "Ġmoves": 4265,
      "Ġanywhere": 4266,
      "Ġconverse": 4267,
      "Ġarithmetic": 4268,
      "Ġvis": 4269,
      "ology": 4270,
      "ĠYour": 4271,
      "ĠCret": 4272,
      "ĠCreator": 4273,
      "ivered": 4274,
      "Ġagent": 4275,
      "plies": 4276,
      "agore": 4277,
      "Ġrites": 4278,
      "ĠPyth": 4279,
      "Ġadopt": 4280,
      "Ġplenty": 4281,
      "Ġperiod": 4282,
      "Ġaccustomed": 4283,
      "fulness": 4284,
      "Ġruin": 4285,
      "clos": 4286,
      "ĠEur": 4287,
      "Ġattack": 4288,
      "Ġelected": 4289,
      "armed": 4290,
      "Ġgrown": 4291,
      "Ġfalsely": 4292,
      "Ġhappens": 4293,
      "def": 4294,
      "Ġintervals": 4295,
      "Ġfoundation": 4296,
      "Ġretail": 4297,
      "Ġrefuse": 4298,
      "Ġmarry": 4299,
      "Ġputting": 4300,
      "Ġcarpent": 4301,
      "Ġphysicians": 4302,
      "Ġrespects": 4303,
      "Ġvariety": 4304,
      "Ġbringing": 4305,
      "ĠWhereas": 4306,
      "Ġruns": 4307,
      "Ġminister": 4308,
      "Ġdeclared": 4309,
      "culiar": 4310,
      "Ġfinite": 4311,
      "Ġmerely": 4312,
      "Ġcombination": 4313,
      "divine": 4314,
      "Ġlegislate": 4315,
      "Ġexercises": 4316,
      "persu": 4317,
      "Ġcontained": 4318,
      "Ġsubstances": 4319,
      "Ġrevolution": 4320,
      "ĠCrito": 4321,
      "Ġsuperintend": 4322,
      "Ġpreceded": 4323,
      "created": 4324,
      "Ġdishonourable": 4325,
      "Ġperplexity": 4326,
      "opposite": 4327,
      "Ġheroes": 4328,
      "Ġsalvation": 4329,
      "Ġcharioteer": 4330,
      "Ġdepth": 4331,
      "God": 4332,
      "Plato": 4333,
      "XIAS": 4334,
      "YXIAS": 4335,
      "bout": 4336,
      "dest": 4337,
      "dra": 4338,
      "hind": 4339,
      "rical": 4340,
      "sk": 4341,
      "spo": 4342,
      "sense": 4343,
      "tem": 4344,
      "infl": 4345,
      "injustice": 4346,
      "Ġwin": 4347,
      "Ġwife": 4348,
      "Ġburn": 4349,
      "enic": 4350,
      "Ġcultiv": 4351,
      "Ġinnumerable": 4352,
      "origin": 4353,
      "omy": 4354,
      "uting": 4355,
      "Ġlaid": 4356,
      "Ġorg": 4357,
      "Ġanaly": 4358,
      "verb": 4359,
      "Ġforward": 4360,
      "Ġstir": 4361,
      "Ġexc": 4362,
      "Ġalive": 4363,
      "Ġalong": 4364,
      "Ġvain": 4365,
      "Ġvac": 4366,
      "Ġunite": 4367,
      "Ġcomposition": 4368,
      "ellect": 4369,
      "Ġdisagree": 4370,
      "off": 4371,
      "ERYXIAS": 4372,
      "beys": 4373,
      "ĠGood": 4374,
      "Ġlovers": 4375,
      "ĠFirst": 4376,
      "pha": 4377,
      "Ġbrings": 4378,
      "Ġarguing": 4379,
      "Ġpassage": 4380,
      "Ġentr": 4381,
      "cribe": 4382,
      "Ġintercourse": 4383,
      "Ġimagined": 4384,
      "Ġcreator": 4385,
      "Ġflow": 4386,
      "Ġflux": 4387,
      "Ġcommonly": 4388,
      "Ġmusical": 4389,
      "Ġrelations": 4390,
      "Ġsettle": 4391,
      "Ġstatesman": 4392,
      "Ġextreme": 4393,
      "Ġexpressed": 4394,
      "ĠHellenic": 4395,
      "ĠProceed": 4396,
      "Ġsurface": 4397,
      "Ġfeelings": 4398,
      "Ġseverally": 4399,
      "Ġdecided": 4400,
      "Ġturned": 4401,
      "Ġministers": 4402,
      "Ġinjured": 4403,
      "Ġprovide": 4404,
      "ĠExcellent": 4405,
      "Ġsufficiently": 4406,
      "Ġattributed": 4407,
      "Ġtouching": 4408,
      "Ġeldest": 4409,
      "ronos": 4410,
      "Ġwatch": 4411,
      "ĠLysimachus": 4412,
      "Ġintentionally": 4413,
      "begin": 4414,
      "Ġjoin": 4415,
      "matters": 4416,
      "Ġfruits": 4417,
      "country": 4418,
      "Ġconversation": 4419,
      "Ġincrease": 4420,
      "rodicus": 4421,
      "Ġmurder": 4422,
      "Ġingen": 4423,
      "Ġtyranny": 4424,
      "Ġbirds": 4425,
      "wrong": 4426,
      "Ġastron": 4427,
      "As": 4428,
      "No": 4429,
      "Pro": 4430,
      "TIM": 4431,
      "car": 4432,
      "city": 4433,
      "eth": 4434,
      "iqu": 4435,
      "iers": 4436,
      "ials": 4437,
      "mod": 4438,
      "names": 4439,
      "sac": 4440,
      "sci": 4441,
      "sens": 4442,
      "taken": 4443,
      "var": 4444,
      "wom": 4445,
      "Ġi": 4446,
      "Ġtame": 4447,
      "Ġtales": 4448,
      "Ġtaste": 4449,
      "inations": 4450,
      "Ġowing": 4451,
      "reation": 4452,
      "relat": 4453,
      "Ġsym": 4454,
      "Ġbur": 4455,
      "Ġcat": 4456,
      "Ġinsol": 4457,
      "Ġdam": 4458,
      "Ġdil": 4459,
      "Ġdig": 4460,
      "seem": 4461,
      "Ġnote": 4462,
      "Ġoracle": 4463,
      "Ġassoci": 4464,
      "Ġrejo": 4465,
      "through": 4466,
      "Ġnonsense": 4467,
      "ilful": 4468,
      "Ġstru": 4469,
      "ulars": 4470,
      "isting": 4471,
      "atever": 4472,
      "Ġwhenever": 4473,
      "Ġproverb": 4474,
      "Ġdishon": 4475,
      "ĠHesiod": 4476,
      "places": 4477,
      "occ": 4478,
      "Ġyourselves": 4479,
      "iance": 4480,
      "Ġpartake": 4481,
      "Ġprecisely": 4482,
      "Ġplants": 4483,
      "Ġaffection": 4484,
      "ĠMust": 4485,
      "phon": 4486,
      "Ġordin": 4487,
      "Ġorders": 4488,
      "conv": 4489,
      "exion": 4490,
      "Ġcop": 4491,
      "Ġgrand": 4492,
      "Ġpasses": 4493,
      "Ġpursue": 4494,
      "Ġpriest": 4495,
      "ĠNothing": 4496,
      "AEUS": 4497,
      "Ġpeculiar": 4498,
      "Ġlived": 4499,
      "Ġprevail": 4500,
      "affect": 4501,
      "Ġsett": 4502,
      "Ġdelivered": 4503,
      "Ġdrawn": 4504,
      "Ġrequires": 4505,
      "Ġheavenly": 4506,
      "Ġfalls": 4507,
      "Ġinclined": 4508,
      "Ġparticulars": 4509,
      "Ġexplaining": 4510,
      "Ġprobability": 4511,
      "Ġskilled": 4512,
      "Ġpoetry": 4513,
      "Ġdefine": 4514,
      "Ġcease": 4515,
      "ĠOnce": 4516,
      "Ġselected": 4517,
      "Ġcorrupted": 4518,
      "Ġoffered": 4519,
      "Ġsecret": 4520,
      "Ġconquered": 4521,
      "Ġcensure": 4522,
      "Ġexpedient": 4523,
      "Ġperceives": 4524,
      "Ġcompanion": 4525,
      "Ġfamilies": 4526,
      "Ġalternat": 4527,
      "Ġsafe": 4528,
      "Ġenvy": 4529,
      "Ġintemperate": 4530,
      "small": 4531,
      "Ġmoisture": 4532,
      "ĠAssuredly": 4533,
      "Ġflattery": 4534,
      "ĠAtlantis": 4535,
      "TIMAEUS": 4536,
      "An": 4537,
      "Do": 4538,
      "Yes": 4539,
      "could": 4540,
      "dise": 4541,
      "far": 4542,
      "four": 4543,
      "found": 4544,
      "fair": 4545,
      "harm": 4546,
      "nment": 4547,
      "oper": 4548,
      "pal": 4549,
      "pared": 4550,
      "vent": 4551,
      "water": 4552,
      "inist": 4553,
      "inced": 4554,
      "Ġsaf": 4555,
      "isk": 4556,
      "Ġbile": 4557,
      "Ġmed": 4558,
      "enides": 4559,
      "Ġhomic": 4560,
      "Ġcaught": 4561,
      "Ġfill": 4562,
      "Ġfield": 4563,
      "Ġinner": 4564,
      "Ġpath": 4565,
      "iteness": 4566,
      "Ġdancing": 4567,
      "icip": 4568,
      "thene": 4569,
      "lym": 4570,
      "Ġgrat": 4571,
      "Ġlow": 4572,
      "Ġlater": 4573,
      "Ġaside": 4574,
      "Ġreject": 4575,
      "Ġanswers": 4576,
      "still": 4577,
      "stri": 4578,
      "Ġnet": 4579,
      "ĠTake": 4580,
      "Ġshut": 4581,
      "ilt": 4582,
      "Ġconceived": 4583,
      "Ġexactly": 4584,
      "Ġexchange": 4585,
      "Ġlies": 4586,
      "Ġliver": 4587,
      "Ġpros": 4588,
      "Ġprosec": 4589,
      "ols": 4590,
      "ĠCrete": 4591,
      "aws": 4592,
      "become": 4593,
      "Ġpot": 4594,
      "Ġupwards": 4595,
      "while": 4596,
      "aval": 4597,
      "rightly": 4598,
      "Ġenjoy": 4599,
      "Ġcalling": 4600,
      "const": 4601,
      "lessness": 4602,
      "guard": 4603,
      "ĠEnough": 4604,
      "Ġcollect": 4605,
      "ĠHeaven": 4606,
      "Ġintim": 4607,
      "Ġcontract": 4608,
      "Ġbran": 4609,
      "Ġpainter": 4610,
      "Ġregion": 4611,
      "Ġsubdiv": 4612,
      "Ġnumerous": 4613,
      "Ġactual": 4614,
      "Ġcouncil": 4615,
      "Ġexisted": 4616,
      "suppos": 4617,
      "Ġbegins": 4618,
      "Ġintermediate": 4619,
      "Ġinternal": 4620,
      "Ġadmits": 4621,
      "Ġagreeable": 4622,
      "Ġtribes": 4623,
      "Ġproceeding": 4624,
      "Ġflowing": 4625,
      "ĠWere": 4626,
      "Ġroad": 4627,
      "Ġrhetoricians": 4628,
      "icked": 4629,
      "cientific": 4630,
      "Ġphysical": 4631,
      "kinds": 4632,
      "letters": 4633,
      "conscious": 4634,
      "Ġunjustly": 4635,
      "pleasant": 4636,
      "pleasures": 4637,
      "Ġconfident": 4638,
      "Ġadmon": 4639,
      "Ġglory": 4640,
      "Ġinjure": 4641,
      "Ġacquaint": 4642,
      "Ġinterests": 4643,
      "Ġpursuits": 4644,
      "Ġassertion": 4645,
      "Ġsatisfy": 4646,
      "undred": 4647,
      "Ġstandard": 4648,
      "Ġcrimes": 4649,
      "Ġseeking": 4650,
      "Ġsilence": 4651,
      "Ġlimit": 4652,
      "Ġstronger": 4653,
      "idden": 4654,
      "object": 4655,
      "Ġriver": 4656,
      "Ġreadily": 4657,
      "Ġnurture": 4658,
      "Ġregulations": 4659,
      "Ġclearer": 4660,
      "Ġquickly": 4661,
      "Ġangry": 4662,
      "example": 4663,
      "Ġimplies": 4664,
      "Ġplane": 4665,
      "Ġinterpreters": 4666,
      "friends": 4667,
      "Ġvessels": 4668,
      "Ġhurtful": 4669,
      "Ġsurprised": 4670,
      "young": 4671,
      "ĠDelph": 4672,
      "Ġhearers": 4673,
      "Ġrescue": 4674,
      "ERA": 4675,
      "IST": 4676,
      "St": 4677,
      "SIST": 4678,
      "aily": 4679,
      "bo": 4680,
      "both": 4681,
      "eg": 4682,
      "fam": 4683,
      "gm": 4684,
      "gods": 4685,
      "live": 4686,
      "little": 4687,
      "might": 4688,
      "pid": 4689,
      "rut": 4690,
      "ye": 4691,
      "Ġid": 4692,
      "Ġaud": 4693,
      "Ġwit": 4694,
      "Ġwood": 4695,
      "Ġwicked": 4696,
      "reco": 4697,
      "ening": 4698,
      "enquir": 4699,
      "nos": 4700,
      "Ġpup": 4701,
      "Ġpair": 4702,
      "Ġdry": 4703,
      "leb": 4704,
      "Ġgen": 4705,
      "set": 4706,
      "Ġlust": 4707,
      "alus": 4708,
      "already": 4709,
      "Ġann": 4710,
      "RATUS": 4711,
      "ĠAbout": 4712,
      "ĠAthene": 4713,
      "among": 4714,
      "chant": 4715,
      "rud": 4716,
      "add": 4717,
      "gend": 4718,
      "Ġstad": 4719,
      "Ġleaves": 4720,
      "Ġconfl": 4721,
      "Ġdeli": 4722,
      "ĠSpart": 4723,
      "mention": 4724,
      "Ġchast": 4725,
      "plen": 4726,
      "Ġlikewise": 4727,
      "Ġtrade": 4728,
      "Ġartist": 4729,
      "anging": 4730,
      "udes": 4731,
      "ferred": 4732,
      "Ġapart": 4733,
      "Ġordinary": 4734,
      "Ġobed": 4735,
      "express": 4736,
      "Ġcook": 4737,
      "Ġtells": 4738,
      "ĠDionys": 4739,
      "Ġuseless": 4740,
      "Ġintellect": 4741,
      "compl": 4742,
      "Ġelection": 4743,
      "Ġguide": 4744,
      "ceiving": 4745,
      "Ġspring": 4746,
      "Ġaccordingly": 4747,
      "prov": 4748,
      "Ġenters": 4749,
      "Ġfinds": 4750,
      "Ġoffence": 4751,
      "Ġprize": 4752,
      "Ġsmell": 4753,
      "Ġflute": 4754,
      "Ġrob": 4755,
      "Ġlooks": 4756,
      "bedient": 4757,
      "Ġobservation": 4758,
      "holy": 4759,
      "Ġextended": 4760,
      "possibility": 4761,
      "Ġneeds": 4762,
      "says": 4763,
      "Ġobjection": 4764,
      "Ġempt": 4765,
      "Ġsurv": 4766,
      "yram": 4767,
      "Ġconcerns": 4768,
      "Ġpenet": 4769,
      "ĠThose": 4770,
      "Ġadmis": 4771,
      "Ġkept": 4772,
      "Ġdegrees": 4773,
      "Ġservant": 4774,
      "ĠHerm": 4775,
      "Ġsensations": 4776,
      "Ġirration": 4777,
      "Ġmembers": 4778,
      "Ġbenef": 4779,
      "Ġmingle": 4780,
      "contin": 4781,
      "Ġpreserve": 4782,
      "Ġrelates": 4783,
      "ĠSophists": 4784,
      "distingu": 4785,
      "Ġnobler": 4786,
      "fortunate": 4787,
      "Ġsyllable": 4788,
      "Ġbuilding": 4789,
      "Ġhusbandmen": 4790,
      "polit": 4791,
      "Ġcontrol": 4792,
      "Ġdriven": 4793,
      "Ġcommitted": 4794,
      "philosophy": 4795,
      "Ġyesterday": 4796,
      "build": 4797,
      "Ġliquid": 4798,
      "Ġprimary": 4799,
      "Ġorphans": 4800,
      "difficulty": 4801,
      "itiated": 4802,
      "beautiful": 4803,
      "Ġvirtues": 4804,
      "Ġmisfortune": 4805,
      "ĠAchilles": 4806,
      "Ġproclaim": 4807,
      "magist": 4808,
      "Ġseasons": 4809,
      "experience": 4810,
      "ERASIST": 4811,
      "ERASISTRATUS": 4812,
      "00": 4813,
      "?âĢĿ": 4814,
      "Is": 4815,
      "Where": 4816,
      "ait": 4817,
      "bro": 4818,
      "dish": 4819,
      "del": 4820,
      "find": 4821,
      "further": 4822,
      "gl": 4823,
      "gest": 4824,
      "mas": 4825,
      "mixed": 4826,
      "maker": 4827,
      "pract": 4828,
      "rison": 4829,
      "satisf": 4830,
      "uum": 4831,
      "writ": 4832,
      "ypo": 4833,
      "ĠX": 4834,
      "heaven": 4835,
      "Ġwarm": 4836,
      "Ġmal": 4837,
      "Ġmountains": 4838,
      "Ġthirst": 4839,
      "Ġtop": 4840,
      "Ġtor": 4841,
      "ingly": 4842,
      "Ġhypo": 4843,
      "Ġcu": 4844,
      "ancy": 4845,
      "orious": 4846,
      "Ġdies": 4847,
      "Ġdiverse": 4848,
      "Ġissue": 4849,
      "asia": 4850,
      "Ġheight": 4851,
      "Ġgrew": 4852,
      "second": 4853,
      "imag": 4854,
      "iments": 4855,
      "Ġreplied": 4856,
      "Ġreached": 4857,
      "iff": 4858,
      "verted": 4859,
      "ammar": 4860,
      "urbed": 4861,
      "rian": 4862,
      "aked": 4863,
      "esses": 4864,
      "Ġsupre": 4865,
      "adm": 4866,
      "iled": 4867,
      "ilater": 4868,
      "Ġste": 4869,
      "Ġstage": 4870,
      "Ġanybody": 4871,
      "Ġdevoid": 4872,
      "rati": 4873,
      "Ġunwilling": 4874,
      "Ġuniform": 4875,
      "antly": 4876,
      "ĠCnos": 4877,
      "Ġdisorders": 4878,
      "ĠHad": 4879,
      "Ġmyth": 4880,
      "Ġchaos": 4881,
      "Ġsoil": 4882,
      "agon": 4883,
      "Ġspecul": 4884,
      "Ġrough": 4885,
      "ĠPlease": 4886,
      "ĠProdicus": 4887,
      "foresaid": 4888,
      "redit": 4889,
      "Ġevidence": 4890,
      "ĠNever": 4891,
      "pping": 4892,
      "Ġoutside": 4893,
      "trans": 4894,
      "Ġdespo": 4895,
      "Ġprice": 4896,
      "Ġcalls": 4897,
      "wealth": 4898,
      "Ġbook": 4899,
      "Ġbonds": 4900,
      "ĠLike": 4901,
      "ĠMany": 4902,
      "Ġfeast": 4903,
      "Ġclose": 4904,
      "Ġfriendly": 4905,
      "expl": 4906,
      "Ġindis": 4907,
      "serve": 4908,
      "served": 4909,
      "ĠEven": 4910,
      "Ġorderly": 4911,
      "Ġnevertheless": 4912,
      "Ġovercome": 4913,
      "Ġcontem": 4914,
      "posal": 4915,
      "move": 4916,
      "Ġfollowed": 4917,
      "armenides": 4918,
      "Ġstrain": 4919,
      "prob": 4920,
      "proceed": 4921,
      "proportion": 4922,
      "cription": 4923,
      "determ": 4924,
      "educated": 4925,
      "Ġinvented": 4926,
      "Ġproducing": 4927,
      "discus": 4928,
      "Ġuttered": 4929,
      "Ġconditions": 4930,
      "Ġeasier": 4931,
      "onsider": 4932,
      "Ġreturns": 4933,
      "Ġgetting": 4934,
      "Ġattaining": 4935,
      "Ġadmixture": 4936,
      "Ġmovements": 4937,
      "ĠStill": 4938,
      "Ġappropriate": 4939,
      "Ġparticip": 4940,
      "Ġdiscussed": 4941,
      "Ġraised": 4942,
      "Ġskin": 4943,
      "Ġskilful": 4944,
      "istency": 4945,
      "Ġcommands": 4946,
      "Ġintelligent": 4947,
      "ĠHeracle": 4948,
      "Ġsensation": 4949,
      "ĠAristo": 4950,
      "regular": 4951,
      "Ġgrowth": 4952,
      "Ġmoderation": 4953,
      "Ġaims": 4954,
      "axagoras": 4955,
      "Ġbroken": 4956,
      "existent": 4957,
      "Ġceleb": 4958,
      "Ġsatisfact": 4959,
      "Ġlimbs": 4960,
      "Ġcustoms": 4961,
      "Ġfitting": 4962,
      "Ġneighbours": 4963,
      "ĠEgyptian": 4964,
      "Ġoccurred": 4965,
      "Ġsacrifice": 4966,
      "Ġdwelling": 4967,
      "Ġtroubles": 4968,
      "Ġangles": 4969,
      "Ġconnected": 4970,
      "Ġtreatment": 4971,
      "Ġcompounded": 4972,
      "Ġsaved": 4973,
      "Ġengaged": 4974,
      "philosopher": 4975,
      "Ġdestroyed": 4976,
      "Ġgeometry": 4977,
      "Ġblessed": 4978,
      "Ġaccompany": 4979,
      "Ġpiece": 4980,
      "Ġcontradict": 4981,
      "Ġdiscourses": 4982,
      "Ġprelude": 4983,
      "Ġmurderer": 4984,
      "defence": 4985,
      "Ġingenious": 4986,
      "Ġastronomy": 4987,
      "iquity": 4988,
      "ilateral": 4989,
      "Ar": 4990,
      "BUS": 4991,
      "EBUS": 4992,
      "Ph": 4993,
      "Such": 4994,
      "We": 4995,
      "bad": 4996,
      "bted": 4997,
      "did": 4998,
      "gent": 4999,
      "iant": 5000,
      "ox": 5001,
      "rors": 5002,
      "sort": 5003,
      "yle": 5004,
      "Ġ5": 5005,
      "Ġ9": 5006,
      "Ġur": 5007,
      "Ġox": 5008,
      "Ġomitted": 5009,
      "Ġwide": 5010,
      "Ġwits": 5011,
      "Ġwax": 5012,
      "Ġspin": 5013,
      "Ġscho": 5014,
      "athe": 5015,
      "Ġbreed": 5016,
      "ouble": 5017,
      "Ġharb": 5018,
      "Ġcrit": 5019,
      "Ġcross": 5020,
      "Ġfac": 5021,
      "ital": 5022,
      "Ġdaily": 5023,
      "Ġhears": 5024,
      "Ġgar": 5025,
      "Ġgather": 5026,
      "Ġloc": 5027,
      "Ġliter": 5028,
      "imit": 5029,
      "Ġhair": 5030,
      "Ġreplen": 5031,
      "thai": 5032,
      "Ġnations": 5033,
      "rog": 5034,
      "road": 5035,
      "Ġsup": 5036,
      "Ġsuits": 5037,
      "ourselves": 5038,
      "Ġdeceived": 5039,
      "Ġdepend": 5040,
      "ember": 5041,
      "Ġvision": 5042,
      "Ġnearer": 5043,
      "Ġproves": 5044,
      "Ġabsent": 5045,
      "Ġcompress": 5046,
      "ĠCronos": 5047,
      "Ġimpose": 5048,
      "Ġimplied": 5049,
      "ĠHence": 5050,
      "away": 5051,
      "cip": 5052,
      "Ġsoci": 5053,
      "Ġsophist": 5054,
      "becomes": 5055,
      "Ġgreatness": 5056,
      "Ġrank": 5057,
      "Ġrisk": 5058,
      "Ġparties": 5059,
      "Ġpred": 5060,
      "Ġquiet": 5061,
      "Ġartific": 5062,
      "ĠOlym": 5063,
      "Ġenclos": 5064,
      "Ġunderstood": 5065,
      "Ġruling": 5066,
      "Ġimprison": 5067,
      "common": 5068,
      "Ġbeget": 5069,
      "Ġcontend": 5070,
      "moved": 5071,
      "PHIL": 5072,
      "Ġendless": 5073,
      "knowing": 5074,
      "Ġfaith": 5075,
      "Ġfault": 5076,
      "Ġstrains": 5077,
      "Ġactually": 5078,
      "suppose": 5079,
      "Ġopposition": 5080,
      "Ġfinding": 5081,
      "Ġtried": 5082,
      "Ġproceeded": 5083,
      "ibly": 5084,
      "Ġshowing": 5085,
      "Ġdescription": 5086,
      "aff": 5087,
      "Ġconduct": 5088,
      "doing": 5089,
      "Ġrespecting": 5090,
      "respect": 5091,
      "Ġdraught": 5092,
      "Ġeff": 5093,
      "Ġpractised": 5094,
      "gedy": 5095,
      "Ġconvention": 5096,
      "Ġconvince": 5097,
      "Ġpenalties": 5098,
      "Ġtrainer": 5099,
      "Ġconstructed": 5100,
      "Ġprofession": 5101,
      "appears": 5102,
      "Ġcrown": 5103,
      "Ġdeserve": 5104,
      "person": 5105,
      "persons": 5106,
      "Ġplainer": 5107,
      "Ġpossibility": 5108,
      "legisl": 5109,
      "animals": 5110,
      "Ġconquer": 5111,
      "triang": 5112,
      "Ġinformation": 5113,
      "Ġdeclares": 5114,
      "Ġincluding": 5115,
      "Ġincluded": 5116,
      "Ġfruit": 5117,
      "Ġdarkness": 5118,
      "Ġemployed": 5119,
      "...": 5120,
      "thesis": 5121,
      "understanding": 5122,
      "Ġwalls": 5123,
      "Ġhonoured": 5124,
      "Ġarmour": 5125,
      "ulgar": 5126,
      "cendants": 5127,
      "Ġextremity": 5128,
      "Ġinhabitants": 5129,
      "Ġkinsmen": 5130,
      "intentionally": 5131,
      "Ġmanifest": 5132,
      "ĠPythagore": 5133,
      "Ġsettled": 5134,
      "rutiny": 5135,
      "Ġdeliber": 5136,
      "Ġempty": 5137,
      "PHILEBUS": 5138,
      "04": 5139,
      "EX": 5140,
      "Per": 5141,
      "So": 5142,
      "aver": 5143,
      "author": 5144,
      "caus": 5145,
      "cles": 5146,
      "done": 5147,
      "down": 5148,
      "each": 5149,
      "hard": 5150,
      "money": 5151,
      "she": 5152,
      "sight": 5153,
      "tation": 5154,
      "temper": 5155,
      "word": 5156,
      "yet": 5157,
      "hemat": 5158,
      "Ġwings": 5159,
      "revol": 5160,
      "rephon": 5161,
      "Ġbar": 5162,
      "Ġment": 5163,
      "Ġmix": 5164,
      "enus": 5165,
      "Ġhundred": 5166,
      "Ġcure": 5167,
      "anied": 5168,
      "anced": 5169,
      "aneous": 5170,
      "Ġfix": 5171,
      "Ġinformed": 5172,
      "Ġpaid": 5173,
      "Ġpull": 5174,
      "Ġprud": 5175,
      "eds": 5176,
      "Ġbehind": 5177,
      "Ġdivers": 5178,
      "lex": 5179,
      "legm": 5180,
      "Ġgrace": 5181,
      "seen": 5182,
      "Ġlord": 5183,
      "imm": 5184,
      "imate": 5185,
      "ifies": 5186,
      "Ġnaked": 5187,
      "aming": 5188,
      "ros": 5189,
      "Ġmeets": 5190,
      "Ġsuited": 5191,
      "pelled": 5192,
      "Ġsevere": 5193,
      "Ġleg": 5194,
      "Ġvulgar": 5195,
      "Ġproposition": 5196,
      "igning": 5197,
      "seless": 5198,
      "rating": 5199,
      "Ġunknown": 5200,
      "ĠCome": 5201,
      "ĠConsider": 5202,
      "acity": 5203,
      "few": 5204,
      "rent": 5205,
      "whatever": 5206,
      "ordinary": 5207,
      "Ġprime": 5208,
      "Ġrighteous": 5209,
      "astics": 5210,
      "Ġaccuse": 5211,
      "pres": 5212,
      "uthors": 5213,
      "Ġfever": 5214,
      "ENUS": 5215,
      "phys": 5216,
      "Ġoblig": 5217,
      "Ġasks": 5218,
      "conf": 5219,
      "Ġreasonable": 5220,
      "exh": 5221,
      "Ġindul": 5222,
      "Ġcoinc": 5223,
      "Ġgenerations": 5224,
      "comb": 5225,
      "comple": 5226,
      "Ġcontest": 5227,
      "Ġinstances": 5228,
      "bling": 5229,
      "Ġendurance": 5230,
      "Ġattraction": 5231,
      "youth": 5232,
      "Ġconsiderable": 5233,
      "Ġdistance": 5234,
      "athon": 5235,
      "Ġblows": 5236,
      "Ġthroughout": 5237,
      "Ġwarri": 5238,
      "Ġinvent": 5239,
      "MENEX": 5240,
      "Ġwrongly": 5241,
      "Ġrefuted": 5242,
      "Ġreflection": 5243,
      "aerephon": 5244,
      "Ġthirdly": 5245,
      "ribution": 5246,
      "Ġsupposes": 5247,
      "Ġmusician": 5248,
      "Ġdescribing": 5249,
      "Ġperfected": 5250,
      "Ġneeded": 5251,
      "Ġyouths": 5252,
      "Ġcolony": 5253,
      "bodies": 5254,
      "ĠAsia": 5255,
      "Ġprofitable": 5256,
      "myself": 5257,
      "Ġlargest": 5258,
      "Ġfalling": 5259,
      "Ġenquiring": 5260,
      "Ġmaintaining": 5261,
      "ĠAnaxagoras": 5262,
      "Ġleader": 5263,
      "regul": 5264,
      "Ġfinal": 5265,
      "Ġgymnastics": 5266,
      "Ġsummer": 5267,
      "Ġdefined": 5268,
      "Ġawake": 5269,
      "Ġpreviously": 5270,
      "ortunity": 5271,
      "Ġesteem": 5272,
      "Ġstrikes": 5273,
      "Ġremarked": 5274,
      "Ġrelative": 5275,
      "Ġtriangle": 5276,
      "Ġpresence": 5277,
      "Ġcutting": 5278,
      "Ġdangerous": 5279,
      "Ġimmort": 5280,
      "Ġexcessive": 5281,
      "instru": 5282,
      "Ġcalculation": 5283,
      "Ġpretty": 5284,
      "Ġguilt": 5285,
      "element": 5286,
      "Ġconsequences": 5287,
      "Ġsongs": 5288,
      "follows": 5289,
      "changeable": 5290,
      "Ġconnexion": 5291,
      "Ġofficers": 5292,
      "Ġprophet": 5293,
      "suffer": 5294,
      "subject": 5295,
      "Ġillustration": 5296,
      "Ġperceiving": 5297,
      "regarded": 5298,
      "Ġdissolution": 5299,
      "Ġprocure": 5300,
      "Ġpoems": 5301,
      "Ġacquisition": 5302,
      "Ġswiftness": 5303,
      "Ġfulfil": 5304,
      "Ġshepherds": 5305,
      "Ġclothes": 5306,
      "Ġvotes": 5307,
      "Ġpicture": 5308,
      "Ġchoruses": 5309,
      "Ġarrangement": 5310,
      "Ġinnocent": 5311,
      "Ġsolemn": 5312,
      "Ġperpetual": 5313,
      "Ġdrachmae": 5314,
      "government": 5315,
      "Ġdomin": 5316,
      "Ġfurnish": 5317,
      "Ġentrust": 5318,
      "science": 5319,
      "Ġalternative": 5320,
      "Ġacquaintance": 5321,
      "Ġirrational": 5322,
      "040": 5323,
      "MENEXENUS": 5324,
      "Or": 5325,
      "aud": 5326,
      "clearly": 5327,
      "drink": 5328,
      "een": 5329,
      "fig": 5330,
      "five": 5331,
      "flesh": 5332,
      "gives": 5333,
      "hip": 5334,
      "iour": 5335,
      "iency": 5336,
      "joice": 5337,
      "liness": 5338,
      "love": 5339,
      "ma": 5340,
      "makes": 5341,
      "ope": 5342,
      "pain": 5343,
      "rs": 5344,
      "rid": 5345,
      "rang": 5346,
      "uge": 5347,
      "ufact": 5348,
      "war": 5349,
      "yes": 5350,
      "Ġ8": 5351,
      "Ġer": 5352,
      "Ġvers": 5353,
      "Ġident": 5354,
      "hever": 5355,
      "health": 5356,
      "Ġaforesaid": 5357,
      "Ġauthors": 5358,
      "inent": 5359,
      "retion": 5360,
      "Ġsir": 5361,
      "Ġsister": 5362,
      "Ġscientific": 5363,
      "isans": 5364,
      "Ġbal": 5365,
      "Ġbid": 5366,
      "oubted": 5367,
      "Ġmess": 5368,
      "Ġthor": 5369,
      "Ġthreat": 5370,
      "Ġhire": 5371,
      "ancient": 5372,
      "itors": 5373,
      "Ġbelly": 5374,
      "Ġdedic": 5375,
      "Ġdrun": 5376,
      "ichever": 5377,
      "asmuch": 5378,
      "Ġgir": 5379,
      "Ġlun": 5380,
      "Ġorator": 5381,
      "Ġhabits": 5382,
      "Ġascertain": 5383,
      "Ġnoun": 5384,
      "ĠTroy": 5385,
      "idon": 5386,
      "owels": 5387,
      "urb": 5388,
      "Ġmeats": 5389,
      "Ġmanufact": 5390,
      "ads": 5391,
      "iling": 5392,
      "Ġstay": 5393,
      "Ġstones": 5394,
      "Ġstyle": 5395,
      "Ġconc": 5396,
      "ulter": 5397,
      "ulation": 5398,
      "ĠSee": 5399,
      "Ġvo": 5400,
      "Ġvill": 5401,
      "Ġvict": 5402,
      "Ġvoy": 5403,
      "Ġtheirs": 5404,
      "Ġproposed": 5405,
      "raordinary": 5406,
      "igods": 5407,
      "Ġunfortunate": 5408,
      "Ġmyster": 5409,
      "Ġamaz": 5410,
      "universe": 5411,
      "bered": 5412,
      "umer": 5413,
      "Ġacid": 5414,
      "ocracy": 5415,
      "Ġmoreover": 5416,
      "perhaps": 5417,
      "Ġprepared": 5418,
      "ĠPl": 5419,
      "Ġadvers": 5420,
      "avel": 5421,
      "previous": 5422,
      "Ġbond": 5423,
      "Ġremedy": 5424,
      "Ġlifeless": 5425,
      "ficial": 5426,
      "Ġgenerated": 5427,
      "coming": 5428,
      "composed": 5429,
      "moving": 5430,
      "Ġrespiration": 5431,
      "Ġslain": 5432,
      "Ġcompul": 5433,
      "knows": 5434,
      "Ġgrammar": 5435,
      "Ġearthly": 5436,
      "super": 5437,
      "Ġblind": 5438,
      "Ġentreat": 5439,
      "Ġbadly": 5440,
      "ignorance": 5441,
      "Ġinvisible": 5442,
      "Ġoffences": 5443,
      "Ġwronged": 5444,
      "Ġsecondary": 5445,
      "Ġregards": 5446,
      "These": 5447,
      "Ġtruer": 5448,
      "Ġtruest": 5449,
      "particles": 5450,
      "Ġphilosoph": 5451,
      "discourse": 5452,
      "Ġobserving": 5453,
      "Ġafford": 5454,
      "Ġinscribed": 5455,
      "Ġideal": 5456,
      "Ġgoverned": 5457,
      "Ġconfess": 5458,
      "Ġrecall": 5459,
      "Ġincurable": 5460,
      "Ġcircular": 5461,
      "Ġadminist": 5462,
      "ĠMeles": 5463,
      "Ġinflicted": 5464,
      "Ġgovernments": 5465,
      "Ġteaches": 5466,
      "Ġcharacters": 5467,
      "Ġminae": 5468,
      "Ġhealthy": 5469,
      "Ġtrying": 5470,
      "Ġcommanders": 5471,
      "Ġcontinu": 5472,
      "Ġprocesses": 5473,
      "Ġmagistrate": 5474,
      "Ġmothers": 5475,
      "Ġgently": 5476,
      "Ġcomplex": 5477,
      "fold": 5478,
      "generation": 5479,
      "Ġcorrectness": 5480,
      "Ġpreservation": 5481,
      "Ġmonstr": 5482,
      "Ġdealings": 5483,
      "however": 5484,
      "thinking": 5485,
      "Ġricher": 5486,
      "Ġrichest": 5487,
      "Ġcontains": 5488,
      "Ġfortunate": 5489,
      "Ġclever": 5490,
      "ifying": 5491,
      "Ġdistribute": 5492,
      "Ġdistributed": 5493,
      "mediately": 5494,
      "Ġintroduced": 5495,
      "Ġabsence": 5496,
      "Ġshoes": 5497,
      "sufficient": 5498,
      "ieties": 5499,
      "Ġaccusation": 5500,
      "Ġmidw": 5501,
      "Ġdisobedient": 5502,
      "correct": 5503,
      "Ġoppon": 5504,
      "Ġestablished": 5505,
      "Ġpieces": 5506,
      "Ġcomprehended": 5507,
      "intelligence": 5508,
      "Ġslowly": 5509,
      "Ġsurrounding": 5510,
      "Ġshepherd": 5511,
      "Ġescaped": 5512,
      "Ġliberty": 5513,
      "ĠChaerephon": 5514,
      "contrary": 5515,
      "Ġaffirmed": 5516,
      "Ġaffirms": 5517,
      "punished": 5518,
      "Ġcrafts": 5519,
      "Ġsupply": 5520,
      "advantage": 5521,
      "Ġmaterial": 5522,
      "Ġdaughter": 5523,
      "Ġholiness": 5524,
      "Ġreligion": 5525,
      "Ġcondemned": 5526,
      "Ġsenseless": 5527,
      "Ġfatal": 5528,
      "Ġhomicide": 5529,
      "supposed": 5530,
      "ĠDionysus": 5531,
      "magistrates": 5532,
      "Ġsociety": 5533,
      "Ġmental": 5534,
      "Ġmonstrous": 5535,
      ".,": 5536,
      "All": 5537,
      "AER": 5538,
      "EPH": 5539,
      "Hell": 5540,
      "bene": 5541,
      "case": 5542,
      "dep": 5543,
      "ein": 5544,
      "fused": 5545,
      "gen": 5546,
      "giv": 5547,
      "gra": 5548,
      "lar": 5549,
      "line": 5550,
      "light": 5551,
      "living": 5552,
      "mult": 5553,
      "maintain": 5554,
      "morrow": 5555,
      "oke": 5556,
      "ook": 5557,
      "pat": 5558,
      "sis": 5559,
      "sur": 5560,
      "tend": 5561,
      "turn": 5562,
      "uble": 5563,
      "uable": 5564,
      "uces": 5565,
      "want": 5566,
      "Ġted": 5567,
      "Ġtire": 5568,
      "hear": 5569,
      "held": 5570,
      "Ġax": 5571,
      "inj": 5572,
      "really": 5573,
      "resh": 5574,
      "Ġspre": 5575,
      "atic": 5576,
      "attain": 5577,
      "iss": 5578,
      "ert": 5579,
      "oud": 5580,
      "Ġma": 5581,
      "Ġmut": 5582,
      "Ġthou": 5583,
      "Ġthither": 5584,
      "Ġhum": 5585,
      "Ġhymn": 5586,
      "Ġcapt": 5587,
      "Ġfate": 5588,
      "Ġfountain": 5589,
      "Ġfaint": 5590,
      "Ġinser": 5591,
      "Ġped": 5592,
      "Ġpit": 5593,
      "Ġpore": 5594,
      "orter": 5595,
      "ority": 5596,
      "Ġbeat": 5597,
      "Ġdr": 5598,
      "Ġdro": 5599,
      "icated": 5600,
      "icken": 5601,
      "lead": 5602,
      "asp": 5603,
      "vey": 5604,
      "Ġhes": 5605,
      "sever": 5606,
      "Ġlam": 5607,
      "Ġlack": 5608,
      "Ġlux": 5609,
      "impress": 5610,
      "import": 5611,
      "Ġweaker": 5612,
      "cean": 5613,
      "aling": 5614,
      "alogy": 5615,
      "Ġreach": 5616,
      "enth": 5617,
      "entire": 5618,
      "thren": 5619,
      "ĠAcc": 5620,
      "urious": 5621,
      "Ġwhoever": 5622,
      "rote": 5623,
      "andering": 5624,
      "iles": 5625,
      "poreal": 5626,
      "Ġstation": 5627,
      "Ġsteed": 5628,
      "Ġlegend": 5629,
      "Ġdemon": 5630,
      "Ġarcher": 5631,
      "Ġvast": 5632,
      "ĠThess": 5633,
      "Ġlips": 5634,
      "Ġnearest": 5635,
      "rative": 5636,
      "Ġunworthy": 5637,
      "Ġunconscious": 5638,
      "arts": 5639,
      "ĠCon": 5640,
      "ellow": 5641,
      "Ġimposed": 5642,
      "Ġimpossibility": 5643,
      "acqu": 5644,
      "ĠHis": 5645,
      "placed": 5646,
      "Ġnative": 5647,
      "oseidon": 5648,
      "aging": 5649,
      "Ġupper": 5650,
      "ĠParmenides": 5651,
      "Ġadequ": 5652,
      "pped": 5653,
      "uded": 5654,
      "CHAER": 5655,
      "Ġenumer": 5656,
      "Ġpride": 5657,
      "welt": 5658,
      "Ġbox": 5659,
      "Ġowner": 5660,
      "ĠMar": 5661,
      "Ġfeed": 5662,
      "Ġforming": 5663,
      "Ġeverybody": 5664,
      "expect": 5665,
      "ĠEle": 5666,
      "ĠDem": 5667,
      "composition": 5668,
      "Ġbegun": 5669,
      "Ġbegotten": 5670,
      "manent": 5671,
      "justly": 5672,
      "Ġsubt": 5673,
      "Ġslower": 5674,
      "osing": 5675,
      "Ġequilateral": 5676,
      "Ġhappier": 5677,
      "medic": 5678,
      "Ġexamination": 5679,
      "Ġbelieving": 5680,
      "until": 5681,
      "Ġtribe": 5682,
      "Ġrefutation": 5683,
      "Ġmodes": 5684,
      "Ġremained": 5685,
      "parts": 5686,
      "Ġmarve": 5687,
      "Ġpossesses": 5688,
      "Ġcarries": 5689,
      "dissol": 5690,
      "ribute": 5691,
      "Ġsupposition": 5692,
      "Ġstatesmen": 5693,
      "Ġunivers": 5694,
      "Ġexpressive": 5695,
      "ialo": 5696,
      "Ġwoof": 5697,
      "ĠRight": 5698,
      "Ġapproach": 5699,
      "Ġturns": 5700,
      "Ġinflict": 5701,
      "Ġmina": 5702,
      "Ġvalour": 5703,
      "othsay": 5704,
      "Ġseparation": 5705,
      "Ġmentioning": 5706,
      "Ġdrinks": 5707,
      "equality": 5708,
      "Ġchoice": 5709,
      "Ġirregular": 5710,
      "Ġeffects": 5711,
      "Ġeffected": 5712,
      "Ġleads": 5713,
      "Ġleading": 5714,
      "Ġgrows": 5715,
      "Ġsummon": 5716,
      "Ġacquainted": 5717,
      "Ġmingling": 5718,
      "contro": 5719,
      "Ġcombinations": 5720,
      "Ġrelating": 5721,
      "Ġgolden": 5722,
      "Ġstanding": 5723,
      "Ġtraditions": 5724,
      "Ġdefeated": 5725,
      "Ġaffected": 5726,
      "Ġsixth": 5727,
      "Ġwaters": 5728,
      "Ġobtained": 5729,
      "yourself": 5730,
      "Ġimpressions": 5731,
      "court": 5732,
      "mission": 5733,
      "Ġbuildings": 5734,
      "Ġlaying": 5735,
      "Ġdistribution": 5736,
      "Ġfairer": 5737,
      "Ġfashioned": 5738,
      "Ġimplanted": 5739,
      "Ġanticip": 5740,
      "Ġantiquity": 5741,
      "ĠPersian": 5742,
      "Ġimparted": 5743,
      "command": 5744,
      "Ġexhibit": 5745,
      "Ġcompanions": 5746,
      "Ġfamiliar": 5747,
      "Ġmonths": 5748,
      "Ġtendency": 5749,
      "Ġopportunity": 5750,
      "Ġhateful": 5751,
      "Ġpunishments": 5752,
      "Ġoccupied": 5753,
      "brought": 5754,
      "praise": 5755,
      "Ġrecognize": 5756,
      "Ġinconsistent": 5757,
      "Ġreproach": 5758,
      "Ġabundance": 5759,
      "Ġsoldiers": 5760,
      "service": 5761,
      "Ġresembl": 5762,
      "Ġreckoned": 5763,
      "colour": 5764,
      "Ġmirror": 5765,
      "Ġapplication": 5766,
      "Ġbrief": 5767,
      "beginning": 5768,
      "Prot": 5769,
      "Ġsafety": 5770,
      "ĠDelphi": 5771,
      "Ġaudience": 5772,
      "enquiry": 5773,
      "dishonour": 5774,
      "Ġsupreme": 5775,
      "legislation": 5776,
      "causes": 5777,
      "oubtedly": 5778,
      "EPHON": 5779,
      "ĠAccording": 5780,
      "CHAEREPHON": 5781,
      "Cleinias": 5782,
      "Lacedaemon": 5783,
      "avery": 5784,
      "ahed": 5785,
      "ault": 5786,
      "cro": 5787,
      "cks": 5788,
      "dire": 5789,
      "fall": 5790,
      "god": 5791,
      "iable": 5792,
      "jority": 5793,
      "ked": 5794,
      "lest": 5795,
      "leness": 5796,
      "obe": 5797,
      "pular": 5798,
      "ranted": 5799,
      "sound": 5800,
      "ton": 5801,
      "tra": 5802,
      "ub": 5803,
      "voluntarily": 5804,
      "Ġrati": 5805,
      "Ġturning": 5806,
      "Ġae": 5807,
      "infer": 5808,
      "Ġodd": 5809,
      "Ġwinter": 5810,
      "Ġsin": 5811,
      "Ġsave": 5812,
      "Ġmaid": 5813,
      "esis": 5814,
      "Ġhat": 5815,
      "anes": 5816,
      "Ġinfinity": 5817,
      "itus": 5818,
      "Ġbearing": 5819,
      "Ġdread": 5820,
      "Ġdwelt": 5821,
      "Ġdialo": 5822,
      "Ġep": 5823,
      "Ġhera": 5824,
      "Ġgames": 5825,
      "imp": 5826,
      "impro": 5827,
      "Ġweap": 5828,
      "Ġreview": 5829,
      "Ġrejoice": 5830,
      "Ġnin": 5831,
      "ĠTruly": 5832,
      "iders": 5833,
      "Ġshad": 5834,
      "Ġshorter": 5835,
      "chief": 5836,
      "hension": 5837,
      "Ġdog": 5838,
      "peak": 5839,
      "quite": 5840,
      "point": 5841,
      "Ġstar": 5842,
      "Ġseat": 5843,
      "Ġsending": 5844,
      "ouring": 5845,
      "Ġconce": 5846,
      "Ġconven": 5847,
      "Ġexce": 5848,
      "Ġexper": 5849,
      "Ġdece": 5850,
      "ivisible": 5851,
      "indeed": 5852,
      "ersed": 5853,
      "Ġneck": 5854,
      "olog": 5855,
      "Ġabide": 5856,
      "ignoble": 5857,
      "keep": 5858,
      "Ġunintentionally": 5859,
      "antages": 5860,
      "Ġgoodness": 5861,
      "--'": 5862,
      "Ġdisgu": 5863,
      "Ġdisposition": 5864,
      "accompl": 5865,
      "often": 5866,
      "Ġamb": 5867,
      "unity": 5868,
      "umn": 5869,
      "Ġpopular": 5870,
      "Ġspend": 5871,
      "Ġpartaking": 5872,
      "Ġpartakes": 5873,
      "Ġpress": 5874,
      "ĠPoseidon": 5875,
      "assign": 5876,
      "Ġsought": 5877,
      "ĠNone": 5878,
      "ĠNext": 5879,
      "Ġpermit": 5880,
      "Ġpermitted": 5881,
      "Ġperfection": 5882,
      "Ġdescendants": 5883,
      "ĠFrom": 5884,
      "laton": 5885,
      "ensurable": 5886,
      "ĠLy": 5887,
      "ĠListen": 5888,
      "Ġfelt": 5889,
      "aping": 5890,
      "Ġdividing": 5891,
      "Ġconsist": 5892,
      "conn": 5893,
      "Ġreasoning": 5894,
      "exceed": 5895,
      "show": 5896,
      "izes": 5897,
      "Ġcovered": 5898,
      "Ġtruths": 5899,
      "Ġintending": 5900,
      "Ġpowerful": 5901,
      "Ġcontent": 5902,
      "Ġbrain": 5903,
      "manship": 5904,
      "mother": 5905,
      "mities": 5906,
      "ryx": 5907,
      "neg": 5908,
      "Ġthrust": 5909,
      "Ġguess": 5910,
      "oked": 5911,
      "Ġsuff": 5912,
      "Ġsuffers": 5913,
      "Ġwarp": 5914,
      "ignorant": 5915,
      "defin": 5916,
      "within": 5917,
      "Ġinvention": 5918,
      "Ġlegislating": 5919,
      "Ġphlegm": 5920,
      "Ġadvantages": 5921,
      "Ġmodel": 5922,
      "Ġsinging": 5923,
      "solid": 5924,
      "ibres": 5925,
      "disp": 5926,
      "formation": 5927,
      "Ġrelate": 5928,
      "Ġwriter": 5929,
      "Ġimitations": 5930,
      "Ġproportions": 5931,
      "ternity": 5932,
      "Ġvariance": 5933,
      "racted": 5934,
      "Ġattainment": 5935,
      "Ġcircumstances": 5936,
      "Ġnewly": 5937,
      "Ġkingdom": 5938,
      "Ġvaliant": 5939,
      "Ġconvinced": 5940,
      "Ġscrutiny": 5941,
      "Ġcontinually": 5942,
      "Ġbuilt": 5943,
      "Ġfreely": 5944,
      "arent": 5945,
      "Ġhunger": 5946,
      "Ġcorrectly": 5947,
      "Ġstrike": 5948,
      "appeared": 5949,
      "Ġparent": 5950,
      "Ġrelated": 5951,
      "Ġvictor": 5952,
      "days": 5953,
      "Ġswear": 5954,
      "Ġdeserves": 5955,
      "honourable": 5956,
      "Ġcowardly": 5957,
      "Ġlimits": 5958,
      "Ġplaying": 5959,
      "Ġclearness": 5960,
      "Ġelders": 5961,
      "Ġcarrying": 5962,
      "Ġoffering": 5963,
      "Ġaccomplish": 5964,
      "Ġdemand": 5965,
      "Ġdemigods": 5966,
      "Ġsixty": 5967,
      "Ġcalm": 5968,
      "Ġcalam": 5969,
      "Ġpretend": 5970,
      "Ġbrethren": 5971,
      "Ġkills": 5972,
      "plicity": 5973,
      "Ġdelighted": 5974,
      "Ġsecurity": 5975,
      "Ġreferring": 5976,
      "Ġstreams": 5977,
      "Ġpreferred": 5978,
      "fathers": 5979,
      "Ġsavage": 5980,
      "judges": 5981,
      "Ġrhythms": 5982,
      "Ġquarre": 5983,
      "Ġfastened": 5984,
      "Ġpromise": 5985,
      "Ġdissolved": 5986,
      "necessity": 5987,
      "necessary": 5988,
      "Ġprotection": 5989,
      "Ġdefendant": 5990,
      "Ġacquisitive": 5991,
      "Ġmathemat": 5992,
      "Ġdiscoursing": 5993,
      "Ġexecute": 5994,
      "Ġnarrative": 5995,
      "concerned": 5996,
      "Ġfestivals": 5997,
      "easily": 5998,
      "lasting": 5999,
      "Ġhitherto": 6000,
      "Ġdiscern": 6001,
      "parents": 6002,
      "Ġmelody": 6003,
      "Ġwinged": 6004,
      "Ġfirmly": 6005,
      "Ġbeasts": 6006,
      "Ġdesirous": 6007,
      "persuasion": 6008,
      "Ġorgans": 6009,
      "Ġvacuum": 6010,
      "Ġsymmet": 6011,
      "Ġdamages": 6012,
      "Ġdishonest": 6013,
      "Ġordinances": 6014,
      "Ġcopy": 6015,
      "Ġprosper": 6016,
      "years": 6017,
      "mentioned": 6018,
      "ĠHermes": 6019,
      "Ġhypothesis": 6020,
      "Ġspeculations": 6021,
      "ĠHeracleitus": 6022,
      "Ġ5040": 6023,
      "Ġschool": 6024,
      "Ġliterally": 6025,
      "Ġobliged": 6026,
      "ridiculous": 6027,
      "Ġgirls": 6028,
      "ĠMelesias": 6029,
      "given": 6030,
      "Ġtedious": 6031,
      "medicine": 6032,
      "Ġherald": 6033,
      "ACHUS": 6034,
      "ID": 6035,
      "LY": 6036,
      "Of": 6037,
      "SIM": 6038,
      "To": 6039,
      "Timaeus": 6040,
      "Wh": 6041,
      "Well": 6042,
      "bre": 6043,
      "bility": 6044,
      "cal": 6045,
      "came": 6046,
      "cence": 6047,
      "dem": 6048,
      "faces": 6049,
      "gone": 6050,
      "gymn": 6051,
      "house": 6052,
      "iate": 6053,
      "knew": 6054,
      "lcome": 6055,
      "mity": 6056,
      "ras": 6057,
      "rain": 6058,
      "rines": 6059,
      "sake": 6060,
      "treat": 6061,
      "uated": 6062,
      "vile": 6063,
      "zes": 6064,
      "Ġ-": 6065,
      "Ġtrees": 6066,
      "Ġtheat": 6067,
      "inate": 6068,
      "iners": 6069,
      "inous": 6070,
      "inner": 6071,
      "Ġwait": 6072,
      "rep": 6073,
      "repro": 6074,
      "receive": 6075,
      "isen": 6076,
      "Ġbow": 6077,
      "Ġbra": 6078,
      "llous": 6079,
      "Ġcy": 6080,
      "Ġcry": 6081,
      "anthus": 6082,
      "Ġfro": 6083,
      "Ġfibres": 6084,
      "itution": 6085,
      "Ġwhither": 6086,
      "oration": 6087,
      "Ġdens": 6088,
      "Ġdied": 6089,
      "Ġdull": 6090,
      "ically": 6091,
      "arce": 6092,
      "arth": 6093,
      "asing": 6094,
      "asions": 6095,
      "Ġheir": 6096,
      "Ġgiver": 6097,
      "imil": 6098,
      "imony": 6099,
      "Ġweight": 6100,
      "alent": 6101,
      "Ġrend": 6102,
      "Ġrevers": 6103,
      "ifter": 6104,
      "thians": 6105,
      "thousand": 6106,
      "stem": 6107,
      "stone": 6108,
      "stices": 6109,
      "Ġnu": 6110,
      "allowed": 6111,
      "idance": 6112,
      "Ġtheme": 6113,
      "uries": 6114,
      "Ġshield": 6115,
      "Ġsharp": 6116,
      "admit": 6117,
      "estor": 6118,
      "estus": 6119,
      "ilon": 6120,
      "Ġseal": 6121,
      "ourne": 6122,
      "Ġdefinite": 6123,
      "Ġalt": 6124,
      "ĠSpeak": 6125,
      "Ġvan": 6126,
      "ĠWas": 6127,
      "ĠWith": 6128,
      "individ": 6129,
      "ĠTheir": 6130,
      "Ġprose": 6131,
      "Ġproposal": 6132,
      "Ġabroad": 6133,
      "Ġuncertain": 6134,
      "Ġimmo": 6135,
      "Ġimmediately": 6136,
      "Ġjourne": 6137,
      "feel": 6138,
      "Ġchor": 6139,
      "Ġsoothsay": 6140,
      "unless": 6141,
      "CLID": 6142,
      "Ġpoll": 6143,
      "ocks": 6144,
      "Ġrus": 6145,
      "ĠGranted": 6146,
      "oneous": 6147,
      "Ġlots": 6148,
      "Ġlosing": 6149,
      "Ġperi": 6150,
      "Ġperish": 6151,
      "Ġener": 6152,
      "Ġenable": 6153,
      "Ġprison": 6154,
      "ĠFurther": 6155,
      "iously": 6156,
      "otes": 6157,
      "Ġappl": 6158,
      "Ġconsists": 6159,
      "contain": 6160,
      "ferences": 6161,
      "Ġinde": 6162,
      "ĠHepha": 6163,
      "ĠDor": 6164,
      "interest": 6165,
      "Ġbrid": 6166,
      "Ġbride": 6167,
      "Ġpainting": 6168,
      "ceptible": 6169,
      "Ġmaker": 6170,
      "Ġthrow": 6171,
      "learn": 6172,
      "Ġattended": 6173,
      "Ġattending": 6174,
      "Ġdiscord": 6175,
      "Ġwanton": 6176,
      "Ġassured": 6177,
      "Ġcount": 6178,
      "Ġcounter": 6179,
      "likeness": 6180,
      "Ġlesson": 6181,
      "Ġpraising": 6182,
      "Ġwherever": 6183,
      "Ġwarlike": 6184,
      "decl": 6185,
      "death": 6186,
      "Ġworking": 6187,
      "Ġinterrog": 6188,
      "Ġbelieved": 6189,
      "Ġcreates": 6190,
      "Ġadvising": 6191,
      "pray": 6192,
      "Ġrefuses": 6193,
      "upid": 6194,
      "ifications": 6195,
      "Ġsmallest": 6196,
      "Ġshowed": 6197,
      "natures": 6198,
      "Ġfearful": 6199,
      "Ġinsist": 6200,
      "Ġwriters": 6201,
      "Ġextending": 6202,
      "Ġpersuading": 6203,
      "Ġmistakes": 6204,
      "Ġwool": 6205,
      "EUCLID": 6206,
      "ĠIsland": 6207,
      "ressed": 6208,
      "priety": 6209,
      "Ġdetermining": 6210,
      "Ġconfused": 6211,
      "remain": 6212,
      "remark": 6213,
      "Ġerrors": 6214,
      "Ġheads": 6215,
      "Ġrare": 6216,
      "Ġrapid": 6217,
      "Ġglorious": 6218,
      "Ġproduction": 6219,
      "retri": 6220,
      "Ġfrequ": 6221,
      "Ġscarce": 6222,
      "Ġbuy": 6223,
      "Ġbelongings": 6224,
      "Ġdispersed": 6225,
      "Ġgrowing": 6226,
      "Ġdoctors": 6227,
      "Ġpursued": 6228,
      "Ġcombined": 6229,
      "pires": 6230,
      "Ġarrives": 6231,
      "ĠAlso": 6232,
      "ĠOnly": 6233,
      "belong": 6234,
      "Ġresults": 6235,
      "Ġfailed": 6236,
      "intercourse": 6237,
      "Ġswifter": 6238,
      "Ġsystem": 6239,
      "Ġthousands": 6240,
      "Ġrivers": 6241,
      "Ġagrees": 6242,
      "effect": 6243,
      "eflect": 6244,
      "ĠBeing": 6245,
      "Ġcontaining": 6246,
      "Ġregulated": 6247,
      "Ġbreak": 6248,
      "Ġdrawing": 6249,
      "strong": 6250,
      "Ġgentleman": 6251,
      "Ġbrothers": 6252,
      "Ġoffender": 6253,
      "Ġtragedy": 6254,
      "Ġverb": 6255,
      "Ġintroducing": 6256,
      "Ġimplant": 6257,
      "Ġpreceding": 6258,
      "Ġdeprive": 6259,
      "Ġinterpret": 6260,
      "look": 6261,
      "Ġsells": 6262,
      "Ġdeparted": 6263,
      "seeing": 6264,
      "Ġdirector": 6265,
      "playing": 6266,
      "Ġdesigned": 6267,
      "Ġenacted": 6268,
      "Ġenactments": 6269,
      "Ġharmonious": 6270,
      "Ġdespised": 6271,
      "Ġaccompanied": 6272,
      "Ġcomprehend": 6273,
      "Ġwounds": 6274,
      "Ġhonest": 6275,
      "Ġprimitive": 6276,
      "Ġorphan": 6277,
      "difficult": 6278,
      "chel": 6279,
      "contrad": 6280,
      "Ġsupport": 6281,
      "music": 6282,
      "property": 6283,
      "Ġmaterials": 6284,
      "Ġdaughters": 6285,
      "Ġjealousy": 6286,
      "Ġcheer": 6287,
      "Ġinvolved": 6288,
      "parent": 6289,
      "Ġnourishment": 6290,
      "Ġindictment": 6291,
      "Ġsuffered": 6292,
      "Ġsufferer": 6293,
      "Ġtreasure": 6294,
      "ĠCretan": 6295,
      "Ġcarpenter": 6296,
      "spoken": 6297,
      "temples": 6298,
      "original": 6299,
      "Ġdisagreeable": 6300,
      "Ġsettlement": 6301,
      "sacr": 6302,
      "women": 6303,
      "Ġinsolence": 6304,
      "Ġrejoic": 6305,
      "Ġstruck": 6306,
      "disease": 6307,
      "Ġshuttle": 6308,
      "Ġstadia": 6309,
      "Ġcookery": 6310,
      "Ġsurviv": 6311,
      "distinguished": 6312,
      "imagine": 6313,
      "explanation": 6314,
      "Ġcontempl": 6315,
      "ĠAristotle": 6316,
      "Ġcelebrated": 6317,
      "Ġharbours": 6318,
      "cipient": 6319,
      "ĠOlymp": 6320,
      "triangles": 6321,
      "Sophist": 6322,
      "Ġesteemed": 6323,
      "Ġdominion": 6324,
      "Ġthorough": 6325,
      "Ġmanufacture": 6326,
      "Ġmajority": 6327,
      "Ġpores": 6328,
      "Ġdemonst": 6329,
      "ryxias": 6330,
      "LYSIM": 6331,
      "ĠHephaestus": 6332,
      "LYSIMACHUS": 6333,
      "'--": 6334,
      ".âĢĶ": 6335,
      "::": 6336,
      "At": 6337,
      "Homer": 6338,
      "OK": 6339,
      "bts": 6340,
      "back": 6341,
      "cr": 6342,
      "cra": 6343,
      "den": 6344,
      "eper": 6345,
      "fre": 6346,
      "gon": 6347,
      "gment": 6348,
      "iation": 6349,
      "nant": 6350,
      "oe": 6351,
      "rh": 6352,
      "ral": 6353,
      "rous": 6354,
      "suc": 6355,
      "talk": 6356,
      "truly": 6357,
      "ule": 6358,
      "vance": 6359,
      "viol": 6360,
      "Ġtrave": 6361,
      "Ġtables": 6362,
      "incl": 6363,
      "Ġomit": 6364,
      "Ġomen": 6365,
      "Ġwander": 6366,
      "recisely": 6367,
      "rehension": 6368,
      "Ġsam": 6369,
      "Ġbor": 6370,
      "Ġbare": 6371,
      "Ġmain": 6372,
      "esc": 6373,
      "enough": 6374,
      "enai": 6375,
      "Ġhar": 6376,
      "Ġcher": 6377,
      "Ġcun": 6378,
      "Ġcrow": 6379,
      "Ġfain": 6380,
      "Ġfra": 6381,
      "Ġfought": 6382,
      "Ġpill": 6383,
      "Ġpier": 6384,
      "Ġwhiteness": 6385,
      "Ġwhichever": 6386,
      "ication": 6387,
      "ictory": 6388,
      "asis": 6389,
      "asphe": 6390,
      "Ġeat": 6391,
      "Ġeating": 6392,
      "Ġeternity": 6393,
      "Ġgri": 6394,
      "Ġgame": 6395,
      "Ġgard": 6396,
      "Ġgains": 6397,
      "Ġlic": 6398,
      "Ġlament": 6399,
      "Ġweb": 6400,
      "Ġorn": 6401,
      "Ġorbit": 6402,
      "irmed": 6403,
      "Ġreward": 6404,
      "Ġrearing": 6405,
      "thal": 6406,
      "vering": 6407,
      "stream": 6408,
      "Ġforces": 6409,
      "Ġforced": 6410,
      "amp": 6411,
      "rious": 6412,
      "Ġmeals": 6413,
      "Ġkak": 6414,
      "Ġkilled": 6415,
      "pended": 6416,
      "pends": 6417,
      "adth": 6418,
      "estia": 6419,
      "estrian": 6420,
      "quality": 6421,
      "qualities": 6422,
      "ilities": 6423,
      "poets": 6424,
      "Ġsto": 6425,
      "Ġstore": 6426,
      "Ġsepul": 6427,
      "Ġlegs": 6428,
      "Ġconject": 6429,
      "Ġconsec": 6430,
      "Ġconceit": 6431,
      "Ġdeep": 6432,
      "Ġdeceit": 6433,
      "ulse": 6434,
      "took": 6435,
      "Ġaltern": 6436,
      "Ġarbit": 6437,
      "Ġvol": 6438,
      "istered": 6439,
      "Ġwaste": 6440,
      "olish": 6441,
      "Ġability": 6442,
      "Ġunpleasant": 6443,
      "Ġunholy": 6444,
      "Ġimper": 6445,
      "ĠBac": 6446,
      "acing": 6447,
      "acquire": 6448,
      "ĠHect": 6449,
      "fear": 6450,
      "Ġmyst": 6451,
      "Ġsober": 6452,
      "une": 6453,
      "Ġsomehow": 6454,
      "Ġacross": 6455,
      "agreed": 6456,
      "Ġray": 6457,
      "Ġrash": 6458,
      "Ġpream": 6459,
      "ĠPrecisely": 6460,
      "avig": 6461,
      "plements": 6462,
      "Ġperceptions": 6463,
      "trad": 6464,
      "ĠGoddess": 6465,
      "Ġaccident": 6466,
      "ensation": 6467,
      "Ġdiffers": 6468,
      "arsh": 6469,
      "ecting": 6470,
      "absolute": 6471,
      "ĠMan": 6472,
      "force": 6473,
      "Ġapplies": 6474,
      "Ġconsiders": 6475,
      "Ġindivisible": 6476,
      "ficiency": 6477,
      "lessed": 6478,
      "ization": 6479,
      "uck": 6480,
      "else": 6481,
      "mos": 6482,
      "Ġhopes": 6483,
      "need": 6484,
      "Ġthrown": 6485,
      "Ġslavery": 6486,
      "Ġchildhood": 6487,
      "Ġelect": 6488,
      "Ġstrict": 6489,
      "ipides": 6490,
      "Ġassuredly": 6491,
      "Ġassigning": 6492,
      "Ġgrasp": 6493,
      "Ġrestore": 6494,
      "oses": 6495,
      "Ġcountri": 6496,
      "Ġpurch": 6497,
      "Ġpurity": 6498,
      "Ġpurposes": 6499,
      "prof": 6500,
      "prophe": 6501,
      "Ġenth": 6502,
      "Ġprincipal": 6503,
      "meet": 6504,
      "Ġinterior": 6505,
      "Ġinterrupt": 6506,
      "teach": 6507,
      "Ġjudging": 6508,
      "Ġserve": 6509,
      "Ġretribution": 6510,
      "Ġproceeds": 6511,
      "Ġproperties": 6512,
      "Ġremainder": 6513,
      "Ġflight": 6514,
      "Ġpossessor": 6515,
      "cerning": 6516,
      "diso": 6517,
      "disgrace": 6518,
      "Ġprevails": 6519,
      "Ġlooked": 6520,
      "formity": 6521,
      "Ġreport": 6522,
      "Ġimitating": 6523,
      "consistent": 6524,
      "ĠAsk": 6525,
      "Ġprofit": 6526,
      "Ġrecent": 6527,
      "Ġrecourse": 6528,
      "Ġadmire": 6529,
      "Ġerroneous": 6530,
      "Ġraise": 6531,
      "Ġglut": 6532,
      "Ġglobe": 6533,
      "Ġvaluable": 6534,
      "ĠAnswer": 6535,
      "Ġscale": 6536,
      "ĠHeracles": 6537,
      "Ġexperiences": 6538,
      "Ġexperienced": 6539,
      "Ġattempts": 6540,
      "generally": 6541,
      "Ġtransgress": 6542,
      "Ġceased": 6543,
      "Ġstripes": 6544,
      "wonder": 6545,
      "below": 6546,
      "Ġfails": 6547,
      "Ġdesert": 6548,
      "ĠLacedaemonian": 6549,
      "Ġacceptable": 6550,
      "Ġseriously": 6551,
      "BOOK": 6552,
      "Ġsources": 6553,
      "Ġmetic": 6554,
      "idding": 6555,
      "Ġdetails": 6556,
      "Ġrivals": 6557,
      "Ġcommunity": 6558,
      "Ġdemocracy": 6559,
      "Ġoccurs": 6560,
      "Ġbreadth": 6561,
      "Ġchiefly": 6562,
      "Ġquickness": 6563,
      "Ġstudies": 6564,
      "Ġgrounds": 6565,
      "single": 6566,
      "animal": 6567,
      "Ġbarbarian": 6568,
      "Ġlistening": 6569,
      "motions": 6570,
      "Ġintroduce": 6571,
      "polis": 6572,
      "Ġplanets": 6573,
      "Ġdreams": 6574,
      "Ġdistinctly": 6575,
      "Ġforgetfulness": 6576,
      "judge": 6577,
      "Ġneighbourhood": 6578,
      "Ġexpedition": 6579,
      "Ġsitting": 6580,
      "Ġ27": 6581,
      "Ġwalking": 6582,
      "Ġconversing": 6583,
      "Ġobviously": 6584,
      "Ġgeometrical": 6585,
      "Ġblessings": 6586,
      "Ġcontrive": 6587,
      "Ġsearching": 6588,
      "Ġexecution": 6589,
      "Ġforbid": 6590,
      "produce": 6591,
      "Ġbanished": 6592,
      "Ġmorning": 6593,
      "Ġfestival": 6594,
      "Ġreligious": 6595,
      "Ġadmirable": 6596,
      "Ġmelodies": 6597,
      "Athens": 6598,
      "ĠKing": 6599,
      "Ġspectator": 6600,
      "Ġspectators": 6601,
      "Ġresolved": 6602,
      "Ġmodesty": 6603,
      "Ġabsurdity": 6604,
      "Ġfuner": 6605,
      "ĠCretans": 6606,
      "Ġadopted": 6607,
      "ĠEurope": 6608,
      "moder": 6609,
      "affections": 6610,
      "operative": 6611,
      "strils": 6612,
      "Ġbranches": 6613,
      "Ġgenius": 6614,
      "Ġconflict": 6615,
      "Ġadmissions": 6616,
      "building": 6617,
      "Wherefore": 6618,
      "brother": 6619,
      "Ġsatisfactory": 6620,
      "Ġfaculty": 6621,
      "Ġartificer": 6622,
      "Ġverses": 6623,
      "Ġnouns": 6624,
      "Ġvictim": 6625,
      "Ġvoyage": 6626,
      "Ġcraftsmen": 6627,
      "Ġaxis": 6628,
      "Ġbeaten": 6629,
      "important": 6630,
      "ĠMarathon": 6631,
      "Protagoras": 6632,
      "inferior": 6633,
      "Ġhatred": 6634,
      "Ġconvenient": 6635,
      "Ġcalamity": 6636,
      "Ġperiods": 6637,
      "Ġcunning": 6638,
      "Ġsepulch": 6639,
      "ĠHector": 6640,
      "Ġcountries": 6641,
      "';": 6642,
      ";'": 6643,
      "Every": 6644,
      "How": 6645,
      "PS": 6646,
      "That": 6647,
      "TER": 6648,
      "appo": 6649,
      "bell": 6650,
      "bbl": 6651,
      "barbar": 6652,
      "cases": 6653,
      "custom": 6654,
      "cracy": 6655,
      "double": 6656,
      "fa": 6657,
      "fif": 6658,
      "fashion": 6659,
      "fancy": 6660,
      "gos": 6661,
      "gged": 6662,
      "hun": 6663,
      "ially": 6664,
      "iations": 6665,
      "min": 6666,
      "nes": 6667,
      "non": 6668,
      "nings": 6669,
      "public": 6670,
      "spir": 6671,
      "tures": 6672,
      "times": 6673,
      "taeus": 6674,
      "uation": 6675,
      "virt": 6676,
      "vail": 6677,
      "witness": 6678,
      "xes": 6679,
      "zz": 6680,
      "Ġ=": 6681,
      "Ġignoble": 6682,
      "Ġtable": 6683,
      "head": 6684,
      "heav": 6685,
      "help": 6686,
      "Ġaro": 6687,
      "Ġavert": 6688,
      "Ġtheft": 6689,
      "introd": 6690,
      "Ġom": 6691,
      "Ġoper": 6692,
      "Ġoppose": 6693,
      "Ġwon": 6694,
      "require": 6695,
      "Ġsad": 6696,
      "atory": 6697,
      "attered": 6698,
      "Ġburning": 6699,
      "Ġmild": 6700,
      "once": 6701,
      "onies": 6702,
      "Ġthick": 6703,
      "Ġtoler": 6704,
      "eng": 6705,
      "enem": 6706,
      "Ġhoney": 6707,
      "lls": 6708,
      "anus": 6709,
      "Ġinasmuch": 6710,
      "Ġpig": 6711,
      "itate": 6712,
      "itself": 6713,
      "itudes": 6714,
      "orse": 6715,
      "Ġdaw": 6716,
      "Ġdangers": 6717,
      "arius": 6718,
      "Ġnobly": 6719,
      "usile": 6720,
      "oms": 6721,
      "ĠIli": 6722,
      "Ġhel": 6723,
      "Ġhealed": 6724,
      "Ġnotes": 6725,
      "Ġweaver": 6726,
      "Ġwelcome": 6727,
      "Ġorbits": 6728,
      "celes": 6729,
      "alam": 6730,
      "alone": 6731,
      "Ġrecon": 6732,
      "Ġrebu": 6733,
      "ifferent": 6734,
      "ĠTro": 6735,
      "Ġforty": 6736,
      "amation": 6737,
      "amanthus": 6738,
      "ithyram": 6739,
      "Ġallot": 6740,
      "chie": 6741,
      "changing": 6742,
      "rule": 6743,
      "Ġdoer": 6744,
      "Ġdogs": 6745,
      "Ġkin": 6746,
      "Ġmanners": 6747,
      "pel": 6748,
      "ested": 6749,
      "Ġstupid": 6750,
      "Ġconfined": 6751,
      "Ġexp": 6752,
      "Ġdeceive": 6753,
      "tocles": 6754,
      "ĠSay": 6755,
      "ĠSalam": 6756,
      "eme": 6757,
      "Ġarising": 6758,
      "Ġvary": 6759,
      "indar": 6760,
      "ateful": 6761,
      "raci": 6762,
      "ares": 6763,
      "Ġdisplay": 6764,
      "Ġdisappeared": 6765,
      "Ġimperfect": 6766,
      "acher": 6767,
      "acknowled": 6768,
      "ĠHim": 6769,
      "Ġju": 6770,
      "offer": 6771,
      "Ġchain": 6772,
      "Ġchains": 6773,
      "pled": 6774,
      "uming": 6775,
      "agre": 6776,
      "Ġring": 6777,
      "Ġran": 6778,
      "Ġrise": 6779,
      "Ġprecise": 6780,
      "ĠPo": 6781,
      "ĠPindar": 6782,
      "Ġevents": 6783,
      "Ġoutline": 6784,
      "Ġperv": 6785,
      "Ġperceived": 6786,
      "Ġdesce": 6787,
      "ĠOther": 6788,
      "Ġensl": 6789,
      "Ġenmity": 6790,
      "ĠFar": 6791,
      "Ġaccur": 6792,
      "ension": 6793,
      "ounce": 6794,
      "above": 6795,
      "abilities": 6796,
      "ĠLe": 6797,
      "ĠLaws": 6798,
      "Ġundergone": 6799,
      "applied": 6800,
      "apital": 6801,
      "Ġseeks": 6802,
      "Ġdivination": 6803,
      "Ġobst": 6804,
      "Ġobsc": 6805,
      "conqu": 6806,
      "Ġrude": 6807,
      "exact": 6808,
      "clus": 6809,
      "ĠEp": 6810,
      "ĠEretri": 6811,
      "Ġimpure": 6812,
      "elop": 6813,
      "compelled": 6814,
      "Ġoverth": 6815,
      "Ġcontact": 6816,
      "Ġcontribut": 6817,
      "Ġpained": 6818,
      "Ġhost": 6819,
      "blies": 6820,
      "Ġends": 6821,
      "neighb": 6822,
      "Ġthrowing": 6823,
      "Ġslip": 6824,
      "Ġchildish": 6825,
      "Ġcomply": 6826,
      "Ġeleven": 6827,
      "arms": 6828,
      "Ġsimpl": 6829,
      "Ġassail": 6830,
      "Ġgranted": 6831,
      "osceles": 6832,
      "tingu": 6833,
      "Ġpurged": 6834,
      "likes": 6835,
      "superior": 6836,
      "Ġsports": 6837,
      "Ġsprang": 6838,
      "process": 6839,
      "Ġblasphe": 6840,
      "Ġhanded": 6841,
      "Ġhappily": 6842,
      "deg": 6843,
      "deem": 6844,
      "Ġteeth": 6845,
      "measure": 6846,
      "Ġinvite": 6847,
      "Ġapparent": 6848,
      "Ġallows": 6849,
      "Ġadmitting": 6850,
      "teacher": 6851,
      "Ġprizes": 6852,
      "Ġcharges": 6853,
      "apsed": 6854,
      "Ġcreating": 6855,
      "flux": 6856,
      "Ġadvis": 6857,
      "Ġtribut": 6858,
      "Ġrefused": 6859,
      "They": 6860,
      "partic": 6861,
      "Ġflood": 6862,
      "Ġrock": 6863,
      "Ġrogue": 6864,
      "venge": 6865,
      "Ġadding": 6866,
      "Ġprevented": 6867,
      "Ġsimilarly": 6868,
      "Ġlightly": 6869,
      "Ġextraordinary": 6870,
      "Ġcondens": 6871,
      "doct": 6872,
      "Ġimitator": 6873,
      "Ġdeluge": 6874,
      "âĢĿ?": 6875,
      "Ġmistress": 6876,
      "Ġwoven": 6877,
      "Ġempire": 6878,
      "Ġsurfaces": 6879,
      "Ġvarieties": 6880,
      "private": 6881,
      "remember": 6882,
      "ĠReflect": 6883,
      "Ġincor": 6884,
      "Ġdiseased": 6885,
      "Ġcircum": 6886,
      "Ġparticle": 6887,
      "Ġraces": 6888,
      "Ġminute": 6889,
      "Ġmeasures": 6890,
      "Ġproduct": 6891,
      "return": 6892,
      "retched": 6893,
      "spee": 6894,
      "Ġscattered": 6895,
      "Ġcontinues": 6896,
      "Ġleaders": 6897,
      "Ġfront": 6898,
      "Ġrepeating": 6899,
      "ĠArchel": 6900,
      "Ġdenied": 6901,
      "lawful": 6902,
      "Ġfiner": 6903,
      "Ġbeneath": 6904,
      "Ġbeneficial": 6905,
      "account": 6906,
      "Ġacquit": 6907,
      "Ġassumed": 6908,
      "Ġestimate": 6909,
      "Ġpursuing": 6910,
      "Ġceases": 6911,
      "division": 6912,
      "Ġmonarchy": 6913,
      "ggle": 6914,
      "Ġtyrants": 6915,
      "royal": 6916,
      "Ġvicious": 6917,
      "Ġaffirming": 6918,
      "Ġcrime": 6919,
      "Ġcrimin": 6920,
      "interpre": 6921,
      "Ġswim": 6922,
      "Ġmetap": 6923,
      "rers": 6924,
      "attention": 6925,
      "attempt": 6926,
      "Ġnurt": 6927,
      "aedalus": 6928,
      "Ġvehe": 6929,
      "Ġderiv": 6930,
      "Ġspirits": 6931,
      "Ġregulation": 6932,
      "Ġregulate": 6933,
      "Ġrevolving": 6934,
      "mistocles": 6935,
      "Ġinstitution": 6936,
      "zeal": 6937,
      "ableness": 6938,
      "principles": 6939,
      "following": 6940,
      "Ġlikenesses": 6941,
      "hadamanthus": 6942,
      "Ġlaughing": 6943,
      "Ġassemblies": 6944,
      "Ġfavourite": 6945,
      "lovers": 6946,
      "commun": 6947,
      "Ġprophets": 6948,
      "Ġexceeds": 6949,
      "Ġaccusers": 6950,
      "Here": 6951,
      "Ġdisobeys": 6952,
      "picion": 6953,
      "Ġsalt": 6954,
      "Ġdespise": 6955,
      "Ġlawgivers": 6956,
      "Ġparall": 6957,
      "Ġpalm": 6958,
      "Ġprotect": 6959,
      "Ġwounded": 6960,
      "Ġrepresents": 6961,
      "circumstances": 6962,
      "Ġpictures": 6963,
      "Ġinvestigation": 6964,
      "Ġdialectic": 6965,
      "Ġabundant": 6966,
      "Ġsailing": 6967,
      "Ġflying": 6968,
      "Ġapprehended": 6969,
      "Ġweakness": 6970,
      "carried": 6971,
      "Ġsafely": 6972,
      "Any": 6973,
      "Ġrejected": 6974,
      "Ġnetwork": 6975,
      "avalry": 6976,
      "Ġenjoyment": 6977,
      "Ġpupils": 6978,
      "Ġobedient": 6979,
      "Ġintellectual": 6980,
      "Ġbenefits": 6981,
      "political": 6982,
      "masters": 6983,
      "written": 6984,
      "Ġindissol": 6985,
      "discussion": 6986,
      "Ġtroublesome": 6987,
      "Ġoxen": 6988,
      "Ġcritic": 6989,
      "Ġgarments": 6990,
      "authority": 6991,
      "Ġprudence": 6992,
      "Ġwarrior": 6993,
      "Ġimmortality": 6994,
      "figure": 6995,
      "Ġbalance": 6996,
      "Ġdedicated": 6997,
      "Ġadversary": 6998,
      "Ġcompulsion": 6999,
      "Ġphilosophical": 7000,
      "Ġluxury": 7001,
      "Ġmarvellous": 7002,
      "Ġuniversally": 7003,
      "ahedron": 7004,
      "Ġshadow": 7005,
      "definition": 7006,
      "Ġcycle": 7007,
      "Ġscarcely": 7008,
      "Ġsurvivors": 7009,
      "Ġborne": 7010,
      "PSION": 7011,
      "TERPSION": 7012,
      "ĠTroj": 7013,
      "ĠArchelaus": 7014,
      ")?": 7015,
      "Call": 7016,
      "Certainly": 7017,
      "Her": 7018,
      "Tell": 7019,
      "Who": 7020,
      "bol": 7021,
      "bring": 7022,
      "cum": 7023,
      "cens": 7024,
      "cities": 7025,
      "creation": 7026,
      "da": 7027,
      "due": 7028,
      "dance": 7029,
      "dialect": 7030,
      "fru": 7031,
      "gic": 7032,
      "ground": 7033,
      "hur": 7034,
      "hig": 7035,
      "iot": 7036,
      "language": 7037,
      "mad": 7038,
      "mem": 7039,
      "mark": 7040,
      "oph": 7041,
      "pon": 7042,
      "ping": 7043,
      "put": 7044,
      "sy": 7045,
      "son": 7046,
      "takes": 7047,
      "uing": 7048,
      "uity": 7049,
      "uence": 7050,
      "uction": 7051,
      "vity": 7052,
      "vable": 7053,
      "yours": 7054,
      "Ġzeal": 7055,
      "Ġtill": 7056,
      "Ġtro": 7057,
      "Ġtending": 7058,
      "Ġtends": 7059,
      "heart": 7060,
      "hearing": 7061,
      "inus": 7062,
      "inos": 7063,
      "Ġowe": 7064,
      "Ġolig": 7065,
      "Ġobeys": 7066,
      "Ġwives": 7067,
      "reve": 7068,
      "reality": 7069,
      "ndoubtedly": 7070,
      "Ġsat": 7071,
      "Ġsan": 7072,
      "Ġsway": 7073,
      "erxes": 7074,
      "Ġbent": 7075,
      "Ġbids": 7076,
      "Ġmountain": 7077,
      "especially": 7078,
      "Ġthy": 7079,
      "Ġhill": 7080,
      "Ġhunt": 7081,
      "llen": 7082,
      "Ġcaut": 7083,
      "Ġcredit": 7084,
      "Ġcavalry": 7085,
      "Ġfitness": 7086,
      "Ġfountains": 7087,
      "Ġinher": 7088,
      "Ġinequality": 7089,
      "Ġpus": 7090,
      "Ġpity": 7091,
      "itutions": 7092,
      "orily": 7093,
      "Ġbees": 7094,
      "Ġdimin": 7095,
      "Ġisol": 7096,
      "Ġisosceles": 7097,
      "Ġnose": 7098,
      "Ġnobody": 7099,
      "Ġnostrils": 7100,
      "Ġease": 7101,
      "uto": 7102,
      "ayed": 7103,
      "Ġgest": 7104,
      "Ġgrave": 7105,
      "sell": 7106,
      "Ġnotice": 7107,
      "Ġlords": 7108,
      "Ġweary": 7109,
      "alog": 7110,
      "iring": 7111,
      "Ġrev": 7112,
      "Ġrelease": 7113,
      "ths": 7114,
      "Ġanx": 7115,
      "strength": 7116,
      "Ġnaval": 7117,
      "Ġnavig": 7118,
      "ghter": 7119,
      "rived": 7120,
      "Ġdocks": 7121,
      "Ġmanhood": 7122,
      "Ġmanaged": 7123,
      "andid": 7124,
      "adox": 7125,
      "que": 7126,
      "Ġstories": 7127,
      "Ġselection": 7128,
      "Ġsevent": 7129,
      "Ġlevel": 7130,
      "Ġconvey": 7131,
      "Ġextingu": 7132,
      "Ġthereby": 7133,
      "Ġdepos": 7134,
      "Ġdeities": 7135,
      "Ġdepends": 7136,
      "Ġhistory": 7137,
      "ameter": 7138,
      "herd": 7139,
      "tos": 7140,
      "ĠSic": 7141,
      "ĠSun": 7142,
      "ĠThemistocles": 7143,
      "Ġworship": 7144,
      "igible": 7145,
      "rath": 7146,
      "Ġunseem": 7147,
      "Ġunchangeable": 7148,
      "artin": 7149,
      "Ġcomplain": 7150,
      "Ġcomedy": 7151,
      "ĠCapital": 7152,
      "Ġdislike": 7153,
      "Ġdisappear": 7154,
      "Ġdisordered": 7155,
      "Ġimplements": 7156,
      "accept": 7157,
      "Ġaged": 7158,
      "unjust": 7159,
      "Ġpost": 7160,
      "Ġacute": 7161,
      "endeavour": 7162,
      "perception": 7163,
      "Ġlawful": 7164,
      "Ġspeed": 7165,
      "Ġspecially": 7166,
      "Ġtrick": 7167,
      "least": 7168,
      "Ġqual": 7169,
      "Ġquad": 7170,
      "ĠPr": 7171,
      "why": 7172,
      "asser": 7173,
      "angible": 7174,
      "Ġpermanent": 7175,
      "Ġpercipient": 7176,
      "agement": 7177,
      "Ġensu": 7178,
      "ounds": 7179,
      "prec": 7180,
      "abs": 7181,
      "abund": 7182,
      "ĠLook": 7183,
      "Ġfond": 7184,
      "oting": 7185,
      "actions": 7186,
      "Ġobli": 7187,
      "consequ": 7188,
      "Ġnameless": 7189,
      "swift": 7190,
      "exerc": 7191,
      "excellent": 7192,
      "Ġindol": 7193,
      "Ġindicate": 7194,
      "gues": 7195,
      "serious": 7196,
      "short": 7197,
      "Ġcogn": 7198,
      "Ġcobbl": 7199,
      "Ġcommensurable": 7200,
      "Ġappeal": 7201,
      "ĠDarius": 7202,
      "ints": 7203,
      "intending": 7204,
      "compar": 7205,
      "ceptacle": 7206,
      "Ġhollow": 7207,
      "ĠTherefore": 7208,
      "Ġargued": 7209,
      "Ġguides": 7210,
      "Ġguiding": 7211,
      "Ġguidance": 7212,
      "tenance": 7213,
      "Ġdiscretion": 7214,
      "Ġeverlasting": 7215,
      "Ġassault": 7216,
      "Ġassimil": 7217,
      "Ġgrass": 7218,
      "Ġgrateful": 7219,
      "Ġresting": 7220,
      "osed": 7221,
      "Ġpassive": 7222,
      "Ġpassions": 7223,
      "Ġpurifications": 7224,
      "suit": 7225,
      "ceives": 7226,
      "profit": 7227,
      "Ġentered": 7228,
      "Ġbeginnings": 7229,
      "Ġbadness": 7230,
      "Ġunderstands": 7231,
      "dead": 7232,
      "Ġcares": 7233,
      "Ġhonouring": 7234,
      "Ġnumberless": 7235,
      "Ġappet": 7236,
      "Ġinterstices": 7237,
      "Ġphant": 7238,
      "cythians": 7239,
      "Ġadvoc": 7240,
      "Ġappearing": 7241,
      "Theaetetus": 7242,
      "aeans": 7243,
      "Ġsubjected": 7244,
      "Ġflows": 7245,
      "Ġroom": 7246,
      "Ġroots": 7247,
      "likely": 7248,
      "Ġelic": 7249,
      "Ġelapsed": 7250,
      "Ġremembered": 7251,
      "versy": 7252,
      "Ġdeaths": 7253,
      "Ġfearless": 7254,
      "Ġrelie": 7255,
      "doer": 7256,
      "Ġimitative": 7257,
      "Ġexpresses": 7258,
      "Ġexpressing": 7259,
      "Ġphysics": 7260,
      "Ġdelta": 7261,
      "result": 7262,
      "Ġpropri": 7263,
      "works": 7264,
      "yrus": 7265,
      "Ġlasts": 7266,
      "quiring": 7267,
      "Ġconcern": 7268,
      "Ġcausing": 7269,
      "Ġconfirm": 7270,
      "remains": 7271,
      "Ġwealthy": 7272,
      "Ġriding": 7273,
      ".);": 7274,
      "ĠRhadamanthus": 7275,
      "Ġcreations": 7276,
      "Ġapproved": 7277,
      "Ġraising": 7278,
      "Ġmeasured": 7279,
      "Ġdirections": 7280,
      "whereas": 7281,
      "Ġmaintained": 7282,
      "Ġfresh": 7283,
      "Ġcommanded": 7284,
      "equally": 7285,
      "Ġchoosing": 7286,
      "Ġproviding": 7287,
      "Ġcharacteristic": 7288,
      "difference": 7289,
      "differences": 7290,
      "Ġfewer": 7291,
      "Ġhung": 7292,
      "pedient": 7293,
      "Ġdoctrines": 7294,
      "accord": 7295,
      "Ġassuming": 7296,
      "Ġhabitation": 7297,
      "Ġmadman": 7298,
      "Ġcombat": 7299,
      "Ġpreserves": 7300,
      "going": 7301,
      "gold": 7302,
      "Ġpreside": 7303,
      "Ġtouches": 7304,
      "Ġcowards": 7305,
      "thinks": 7306,
      "Ġstrongly": 7307,
      "Ġtested": 7308,
      "Ġtestimony": 7309,
      "Ġsuspicion": 7310,
      "Ġdistinguishing": 7311,
      "Ġdetail": 7312,
      "Ġnurse": 7313,
      "Ġnurses": 7314,
      "holds": 7315,
      "Ġfancying": 7316,
      "company": 7317,
      "everything": 7318,
      "Ġoffend": 7319,
      "Ġsolids": 7320,
      "Ġtraces": 7321,
      "Ġhusbandry": 7322,
      "annels": 7323,
      "Ġmilk": 7324,
      "considering": 7325,
      "consideration": 7326,
      "sweet": 7327,
      "Ġverbs": 7328,
      "Ġantagon": 7329,
      "Ġsofter": 7330,
      "Ġdeparture": 7331,
      "Ġpatients": 7332,
      "Ġsaviour": 7333,
      "Ġshoem": 7334,
      "Ġreflected": 7335,
      "Ġprophecy": 7336,
      "judgment": 7337,
      "Ġperplexed": 7338,
      "grand": 7339,
      "Ġdrive": 7340,
      "Ġexhibition": 7341,
      "sterity": 7342,
      "ĠUndoubtedly": 7343,
      "Ġdisorderly": 7344,
      "Ġassistance": 7345,
      "Ġappointment": 7346,
      "Ġdisobey": 7347,
      "Ġdisciple": 7348,
      "Ġsuccession": 7349,
      "correspo": 7350,
      "classes": 7351,
      "Ġcontrived": 7352,
      "Ġestablish": 7353,
      "Ġsteps": 7354,
      "Ġprocreation": 7355,
      "Ġbitterness": 7356,
      "istocracy": 7357,
      "Ġparadox": 7358,
      "Ġshameless": 7359,
      "intelligible": 7360,
      "Ġsafer": 7361,
      "Ġmerch": 7362,
      "Ġseeds": 7363,
      "Ġarmies": 7364,
      "Ġdiviner": 7365,
      "Ġcontradiction": 7366,
      "Ġfulfilled": 7367,
      "Ġintemperance": 7368,
      "Ġescaping": 7369,
      "Ġgracious": 7370,
      "beauty": 7371,
      "Ġdiagon": 7372,
      "Ġnarrow": 7373,
      "charact": 7374,
      "Ġzones": 7375,
      "Ġvirtuous": 7376,
      "Ġmisfortunes": 7377,
      "Ġhinder": 7378,
      "Ġconsciousness": 7379,
      "Ġapplicable": 7380,
      "Ġembra": 7381,
      "Ġadmiration": 7382,
      "Ġcapacity": 7383,
      "Ġtreas": 7384,
      "ĠEuripides": 7385,
      "skilled": 7386,
      "inflicted": 7387,
      "Ġorgan": 7388,
      "woman": 7389,
      "Ġiot": 7390,
      "Ġcatch": 7391,
      "Ġpriestesses": 7392,
      "harmony": 7393,
      "Ġmedium": 7394,
      "Ġlowest": 7395,
      "guardian": 7396,
      "Ġbranch": 7397,
      "recogn": 7398,
      "Ġpupil": 7399,
      "ĠSparta": 7400,
      "Ġobedience": 7401,
      "Ġbenefited": 7402,
      "Ġcube": 7403,
      "ĠCnosians": 7404,
      "determine": 7405,
      "athered": 7406,
      "Ġcompressed": 7407,
      "affirm": 7408,
      "ĠPythagorean": 7409,
      "Ġlegal": 7410,
      "complete": 7411,
      "instruments": 7412,
      "Ġentrusted": 7413,
      "ĠSeeing": 7414,
      "Ġadministration": 7415,
      "Ġcontinuance": 7416,
      "Hellenes": 7417,
      "injury": 7418,
      "Ġhymns": 7419,
      "several": 7420,
      "ĠConcerning": 7421,
      "Ġresemblance": 7422,
      "Ġbriefly": 7423,
      "dishonourable": 7424,
      "Ġmaidens": 7425,
      "Ġweapons": 7426,
      "Ġexperiment": 7427,
      "gymnastic": 7428,
      "Ġrendered": 7429,
      "Ġjourney": 7430,
      "Ġsoothsayer": 7431,
      "Ġapplaud": 7432,
      "Ġthoroughly": 7433,
      "Ġsameness": 7434,
      "profess": 7435,
      "Ġenthus": 7436,
      "Ġfuneral": 7437,
      "appointed": 7438,
      "barbarians": 7439,
      "Ġarose": 7440,
      "Ġdawn": 7441,
      "ĠSalamis": 7442,
      "Ġtribute": 7443,
      "particular": 7444,
      "doctrine": 7445,
      "Ġderivation": 7446,
      "Ġparallel": 7447,
      "Ġindissoluble": 7448,
      "?)": 7449,
      "Al": 7450,
      "After": 7451,
      "Crit": 7452,
      "Gorgias": 7453,
      "It": 7454,
      "Lys": 7455,
      "Laws": 7456,
      "Odysseus": 7457,
      "Then": 7458,
      "birth": 7459,
      "bbles": 7460,
      "cur": 7461,
      "crates": 7462,
      "certainly": 7463,
      "coward": 7464,
      "dri": 7465,
      "during": 7466,
      "fort": 7467,
      "fight": 7468,
      "fixed": 7469,
      "festiv": 7470,
      "fellow": 7471,
      "grat": 7472,
      "gave": 7473,
      "husband": 7474,
      "ippo": 7475,
      "iber": 7476,
      "jure": 7477,
      "lim": 7478,
      "mia": 7479,
      "moment": 7480,
      "noun": 7481,
      "othe": 7482,
      "por": 7483,
      "pay": 7484,
      "rist": 7485,
      "ruth": 7486,
      "rained": 7487,
      "riff": 7488,
      "sum": 7489,
      "six": 7490,
      "since": 7491,
      "surely": 7492,
      "taking": 7493,
      "tiff": 7494,
      "vest": 7495,
      "vous": 7496,
      "vial": 7497,
      "zy": 7498,
      "Ġ6": 7499,
      "Ġx": 7500,
      "Ġess": 7501,
      "Ġtut": 7502,
      "Ġtum": 7503,
      "Ġav": 7504,
      "ina": 7505,
      "iner": 7506,
      "inction": 7507,
      "Ġoph": 7508,
      "Ġwandering": 7509,
      "Ġwrath": 7510,
      "repe": 7511,
      "resem": 7512,
      "received": 7513,
      "reply": 7514,
      "Ġsor": 7515,
      "Ġsle": 7516,
      "Ġsings": 7517,
      "Ġswell": 7518,
      "atics": 7519,
      "isis": 7520,
      "era": 7521,
      "Ġbases": 7522,
      "Ġbased": 7523,
      "Ġburd": 7524,
      "Ġbatt": 7525,
      "Ġthin": 7526,
      "Ġthread": 7527,
      "Ġtoil": 7528,
      "Ġtoils": 7529,
      "enon": 7530,
      "enger": 7531,
      "Ġhang": 7532,
      "Ġcru": 7533,
      "Ġcard": 7534,
      "Ġcree": 7535,
      "Ġcured": 7536,
      "anc": 7537,
      "anax": 7538,
      "Ġfil": 7539,
      "Ġfab": 7540,
      "Ġfaces": 7541,
      "Ġinward": 7542,
      "Ġpyram": 7543,
      "itor": 7544,
      "Ġwhit": 7545,
      "Ġwhip": 7546,
      "Ġbeheld": 7547,
      "Ġdiver": 7548,
      "icle": 7549,
      "icting": 7550,
      "icrous": 7551,
      "icule": 7552,
      "assem": 7553,
      "usions": 7554,
      "Ġeps": 7555,
      "Ġeta": 7556,
      "velo": 7557,
      "utable": 7558,
      "Ġheal": 7559,
      "Ġheated": 7560,
      "Ġgathered": 7561,
      "Ġlist": 7562,
      "Ġlud": 7563,
      "Ġlately": 7564,
      "Ġoration": 7565,
      "Ġorators": 7566,
      "Ġregis": 7567,
      "Ġrewards": 7568,
      "Ġrecomm": 7569,
      "Ġreaching": 7570,
      "Ġrebell": 7571,
      "Ġreceptacle": 7572,
      "Ġanalogy": 7573,
      "ĠAnother": 7574,
      "ĠAph": 7575,
      "stat": 7576,
      "Ġnine": 7577,
      "ĠTyr": 7578,
      "illust": 7579,
      "amb": 7580,
      "ams": 7581,
      "amon": 7582,
      "Ġshaken": 7583,
      "Ġshape": 7584,
      "terior": 7585,
      "rob": 7586,
      "rung": 7587,
      "Ġmanly": 7588,
      "pecial": 7589,
      "quar": 7590,
      "Ġstop": 7591,
      "Ġstorm": 7592,
      "Ġsel": 7593,
      "Ġsends": 7594,
      "Ġcongen": 7595,
      "Ġdeaf": 7596,
      "Ġdeficient": 7597,
      "Ġdeformity": 7598,
      "ivity": 7599,
      "ivided": 7600,
      "Ġusual": 7601,
      "ulpt": 7602,
      "ulted": 7603,
      "Ġaltered": 7604,
      "Ġarisen": 7605,
      "Ġvoc": 7606,
      "Ġvisions": 7607,
      "Ġvowels": 7608,
      "istant": 7609,
      "Ġproven": 7610,
      "olation": 7611,
      "ratus": 7612,
      "Ġunmeaning": 7613,
      "Ġunmixed": 7614,
      "Ġcompl": 7615,
      "Ġcompos": 7616,
      "ĠCe": 7617,
      "ĠCy": 7618,
      "Ġdispro": 7619,
      "Ġdispleas": 7620,
      "Ġdismis": 7621,
      "Ġimposes": 7622,
      "ĠBoth": 7623,
      "ardly": 7624,
      "ĠHas": 7625,
      "fere": 7626,
      "fered": 7627,
      "ortals": 7628,
      "unable": 7629,
      "becoming": 7630,
      "Ġsomewhat": 7631,
      "Ġposterity": 7632,
      "perceive": 7633,
      "Ġrings": 7634,
      "Ġparted": 7635,
      "Ġtrif": 7636,
      "Ġprecept": 7637,
      "Ġprecious": 7638,
      "Ġupward": 7639,
      "Ġartists": 7640,
      "Ġartisans": 7641,
      "ĠPlaton": 7642,
      "ĠPelop": 7643,
      "Ġadulter": 7644,
      "avo": 7645,
      "avours": 7646,
      "anges": 7647,
      "ĠNe": 7648,
      "ĠNestor": 7649,
      "Ġpleasing": 7650,
      "Ġjustified": 7651,
      "Ġaffinity": 7652,
      "ĠOur": 7653,
      "ĠOught": 7654,
      "astered": 7655,
      "lated": 7656,
      "Ġaccused": 7657,
      "Ġdiffused": 7658,
      "adel": 7659,
      "ĠMess": 7660,
      "ĠMinos": 7661,
      "apse": 7662,
      "oted": 7663,
      "otion": 7664,
      "Ġremnant": 7665,
      "Ġdivides": 7666,
      "forg": 7667,
      "forward": 7668,
      "Ġconsult": 7669,
      "Ġordained": 7670,
      "Ġcling": 7671,
      "Ġclay": 7672,
      "convers": 7673,
      "Ġreasonably": 7674,
      "explain": 7675,
      "ĠEm": 7676,
      "ĠEryxias": 7677,
      "Ġcost": 7678,
      "Ġimped": 7679,
      "Ġimpunity": 7680,
      "ĠDe": 7681,
      "iasm": 7682,
      "Ġcontempt": 7683,
      "Ġcontending": 7684,
      "Ġregistered": 7685,
      "Ġinstant": 7686,
      "blood": 7687,
      "Ġsubd": 7688,
      "Ġsubmit": 7689,
      "Ġcitadel": 7690,
      "learning": 7691,
      "Ġcompact": 7692,
      "Ġsimplicity": 7693,
      "Ġacted": 7694,
      "Ġpurg": 7695,
      "Ġexistences": 7696,
      "Ġequiv": 7697,
      "Ġspent": 7698,
      "Ġsprung": 7699,
      "Ġblow": 7700,
      "Ġblock": 7701,
      "Ġentering": 7702,
      "Ġwhereby": 7703,
      "Ġterror": 7704,
      "Ġoldest": 7705,
      "Ġopposing": 7706,
      "Ġhappiest": 7707,
      "Ġtears": 7708,
      "Ġexamined": 7709,
      "Ġexaminers": 7710,
      "mere": 7711,
      "Ġinterfere": 7712,
      "âĢĻ;": 7713,
      "Ġimagination": 7714,
      "Ġallowing": 7715,
      "Ġwrongs": 7716,
      "teen": 7717,
      "Ġpresented": 7718,
      "Ġheavier": 7719,
      "Ġserving": 7720,
      "flowing": 7721,
      "Ġcorporeal": 7722,
      "Ġappearances": 7723,
      "Ġretal": 7724,
      "Ġnecessaries": 7725,
      "Ġregardless": 7726,
      "prison": 7727,
      "Ġrefresh": 7728,
      "aea": 7729,
      "Ġflu": 7730,
      "Ġflame": 7731,
      "Ġmarried": 7732,
      "Ġmarvel": 7733,
      "Ġroof": 7734,
      "Ġrotation": 7735,
      "ifices": 7736,
      "Ġeligible": 7737,
      "disc": 7738,
      "forms": 7739,
      "ymph": 7740,
      "Ġfearing": 7741,
      "Ġrelax": 7742,
      "Ġexpressions": 7743,
      "Ġhelped": 7744,
      "Ġdelay": 7745,
      "Ġrespectively": 7746,
      "Ġmiss": 7747,
      "Ġmisery": 7748,
      "Ġcolon": 7749,
      "Ġoccasions": 7750,
      "Ġsurpass": 7751,
      "Ġpropitiated": 7752,
      "Ġhardness": 7753,
      "Ġreturned": 7754,
      "Ġconfidence": 7755,
      "Ġconfirmed": 7756,
      "Ġpractices": 7757,
      "ĠOrphe": 7758,
      "Ġrecur": 7759,
      "Ġrecord": 7760,
      "Ġrecited": 7761,
      "Ġcircles": 7762,
      "Ġcirculation": 7763,
      "ĠThraci": 7764,
      "Ġkeen": 7765,
      "Ġincline": 7766,
      "Ġdiscuss": 7767,
      "Ġdiscussions": 7768,
      "ĠPhil": 7769,
      "Ġimproves": 7770,
      "Ġdirected": 7771,
      "Ġinjures": 7772,
      "istened": 7773,
      "Ġuttering": 7774,
      "species": 7775,
      "Ġsculpt": 7776,
      "ĠAttic": 7777,
      "Ġcontinent": 7778,
      "Ġformerly": 7779,
      "Ġirres": 7780,
      "Ġmemories": 7781,
      "apply": 7782,
      "ĠArch": 7783,
      "ĠShould": 7784,
      "Ġconstruct": 7785,
      "Ġbelonging": 7786,
      "Ġbelonged": 7787,
      "Ġfinish": 7788,
      "Ġfinished": 7789,
      "Ġdeems": 7790,
      "Ġfewest": 7791,
      "Ġsumm": 7792,
      "Ġawaken": 7793,
      "Ġgentleness": 7794,
      "Ġpoliticians": 7795,
      "foolish": 7796,
      "Ġdoctor": 7797,
      "Ġprofessed": 7798,
      "Ġprofessors": 7799,
      "Ġfools": 7800,
      "Ġtransition": 7801,
      "Ġtransform": 7802,
      "Ġmeasurement": 7803,
      "Ġmingles": 7804,
      "Ġdefences": 7805,
      "Ġkeeps": 7806,
      "Ġkeeping": 7807,
      "Ġinfinitely": 7808,
      "Ġstriking": 7809,
      "afterwards": 7810,
      "beloved": 7811,
      "Ġhorsemanship": 7812,
      "intermediate": 7813,
      "Ġattributes": 7814,
      "Ġtouched": 7815,
      "Ġdeserving": 7816,
      "Ġlimited": 7817,
      "Ġdifficulties": 7818,
      "Ġaccepted": 7819,
      "Ġsuspended": 7820,
      "Ġmetre": 7821,
      "Ġproofs": 7822,
      "Ġofferings": 7823,
      "Ġdetained": 7824,
      "Ġaccomplishment": 7825,
      "obtain": 7826,
      "observed": 7827,
      "Ġcommunicate": 7828,
      "Ġdwells": 7829,
      "compan": 7830,
      "compet": 7831,
      "compared": 7832,
      "Ġwatery": 7833,
      "Ġpretence": 7834,
      "Ġpretends": 7835,
      "Ġplaintiff": 7836,
      "Ġrevolutions": 7837,
      "Ġdraws": 7838,
      "Ġtroubled": 7839,
      "Ġhighly": 7840,
      "Ġhearts": 7841,
      "Ġbuilder": 7842,
      "Ġhusbandman": 7843,
      "relation": 7844,
      "Ġsigns": 7845,
      "Ġconquering": 7846,
      "examine": 7847,
      "Ġlying": 7848,
      "Ġlyric": 7849,
      "Ġtreated": 7850,
      "Ġcompounds": 7851,
      "Ġreferred": 7852,
      "Ġpositive": 7853,
      "incapable": 7854,
      "Ġseller": 7855,
      "begotten": 7856,
      "penal": 7857,
      "Ġhappening": 7858,
      "Ġchariot": 7859,
      "Ġincludes": 7860,
      "Ġneighbouring": 7861,
      "Ġcensures": 7862,
      "Ġillustrate": 7863,
      "Ġillustrious": 7864,
      "citizen": 7865,
      "Ġpilots": 7866,
      "opposites": 7867,
      "Ġmidst": 7868,
      "Ġmidriff": 7869,
      "Ġcorrespond": 7870,
      "Ġharmonies": 7871,
      "Ġneglected": 7872,
      "Ġcurious": 7873,
      "necessarily": 7874,
      "Ġincreased": 7875,
      "Ġcontrivance": 7876,
      "ontaneous": 7877,
      "possessed": 7878,
      "possession": 7879,
      "Ġpalp": 7880,
      "ricts": 7881,
      "velop": 7882,
      "Ġdiviners": 7883,
      "Ġsquares": 7884,
      "Ġsorrows": 7885,
      "Ġaddressed": 7886,
      "Ġbeholding": 7887,
      "Ġdiameter": 7888,
      "Ġslays": 7889,
      "Ġrecognized": 7890,
      "younger": 7891,
      "Ġoaths": 7892,
      "Ġbinds": 7893,
      "concerning": 7894,
      "Ġcompetitors": 7895,
      "Ġinvestigate": 7896,
      "getting": 7897,
      "Ġinconsistency": 7898,
      "ulgence": 7899,
      "Ġcharming": 7900,
      "mistaken": 7901,
      "Ġextremes": 7902,
      "desires": 7903,
      "Ġentertained": 7904,
      "Ġsuddenly": 7905,
      "Athenian": 7906,
      "Ġpuzz": 7907,
      "separated": 7908,
      "Ġexclude": 7909,
      "Ġexcluded": 7910,
      "Ġcooled": 7911,
      "discover": 7912,
      "discovery": 7913,
      "Ġgladly": 7914,
      "utterly": 7915,
      "Ġvisual": 7916,
      "destroy": 7917,
      "destruction": 7918,
      "draw": 7919,
      "Ġcultivation": 7920,
      "Ġexcuse": 7921,
      "Ġvacant": 7922,
      "ethys": 7923,
      "sacred": 7924,
      "Ġassociated": 7925,
      "occasion": 7926,
      "Ġgrandfather": 7927,
      "affected": 7928,
      "fairly": 7929,
      "Ġgratify": 7930,
      "Ġpotent": 7931,
      "Ġcollected": 7932,
      "Ġsubdivided": 7933,
      "famous": 7934,
      "Ġidle": 7935,
      "provided": 7936,
      "Ġadmission": 7937,
      "Ġuniformity": 7938,
      "Ġmythology": 7939,
      "ĠNevertheless": 7940,
      "probably": 7941,
      "Arist": 7942,
      "Ġspinning": 7943,
      "Ġimprisoned": 7944,
      "Ġbegetting": 7945,
      "Ġdraughts": 7946,
      "Ġeffort": 7947,
      "ĠPythagoreans": 7948,
      "temperance": 7949,
      "immortal": 7950,
      "Ġprimeval": 7951,
      "exhort": 7952,
      "Ġindulge": 7953,
      "regulated": 7954,
      "drinking": 7955,
      "Ġidentified": 7956,
      "Ġmessage": 7957,
      "Ġdrunk": 7958,
      "Ġlungs": 7959,
      "Ġmysteries": 7960,
      "Ġamazed": 7961,
      "previously": 7962,
      "Ġopponent": 7963,
      "depart": 7964,
      "wanting": 7965,
      "Ġmutual": 7966,
      "Ġsteeds": 7967,
      "ĠThessaly": 7968,
      "Ġunconsciously": 7969,
      "Ġadequately": 7970,
      "Ġfeeding": 7971,
      "control": 7972,
      "Ġanticipation": 7973,
      "cropolis": 7974,
      "Ġratios": 7975,
      "Ġdialogues": 7976,
      "Ġexcel": 7977,
      "Ġmathematical": 7978,
      "Ġtheatre": 7979,
      "Ġchoral": 7980,
      "Ġwantonness": 7981,
      "Ġinterrogate": 7982,
      "Ġcrowd": 7983,
      "Ġlicence": 7984,
      "thalmia": 7985,
      "Ġpreamble": 7986,
      "absolutely": 7987,
      "virtues": 7988,
      "Ġreconcil": 7989,
      "Ġrebuke": 7990,
      "chievous": 7991,
      "agreement": 7992,
      "Ġranks": 7993,
      "degree": 7994,
      "Ġcondensed": 7995,
      "speech": 7996,
      "Ġmetaphys": 7997,
      "Ġnurtured": 7998,
      "Ġvehement": 7999,
      "Ġoligarchy": 8000,
      "Ġsanction": 8001,
      "andidates": 8002,
      "Ġiota": 8003,
      "Ġophthalmia": 8004,
      "Ġbattles": 8005,
      "assembly": 8006,
      "Ġepsilon": 8007,
      "Ġludicrous": 8008,
      "Ġcongenial": 8009,
      "Ġcomposite": 8010,
      "ĠOrpheus": 8011,
      "):": 8012,
      ".;": 8013,
      "Il": 8014,
      "LES": 8015,
      "Republic": 8016,
      "Suppose": 8017,
      "Section": 8018,
      "Would": 8019,
      "Why": 8020,
      "aur": 8021,
      "ban": 8022,
      "bra": 8023,
      "bable": 8024,
      "blessed": 8025,
      "cry": 8026,
      "capable": 8027,
      "colon": 8028,
      "det": 8029,
      "filled": 8030,
      "fountain": 8031,
      "ga": 8032,
      "gro": 8033,
      "houses": 8034,
      "iac": 8035,
      "iby": 8036,
      "lve": 8037,
      "lings": 8038,
      "lab": 8039,
      "mel": 8040,
      "misf": 8041,
      "nur": 8042,
      "net": 8043,
      "pter": 8044,
      "pons": 8045,
      "rons": 8046,
      "sun": 8047,
      "sign": 8048,
      "smooth": 8049,
      "ti": 8050,
      "tal": 8051,
      "tree": 8052,
      "ug": 8053,
      "uit": 8054,
      "vations": 8055,
      "vision": 8056,
      "visible": 8057,
      "victory": 8058,
      "xim": 8059,
      "yanax": 8060,
      "Ġion": 8061,
      "Ġtit": 8062,
      "Ġtall": 8063,
      "Ġtax": 8064,
      "heard": 8065,
      "herent": 8066,
      "Ġath": 8067,
      "Ġaward": 8068,
      "inno": 8069,
      "infinite": 8070,
      "Ġwid": 8071,
      "Ġwrote": 8072,
      "Ġwretched": 8073,
      "represent": 8074,
      "remities": 8075,
      "Ġsust": 8076,
      "Ġscept": 8077,
      "atives": 8078,
      "erion": 8079,
      "Ġble": 8080,
      "Ġbip": 8081,
      "Ġbath": 8082,
      "Ġborder": 8083,
      "Ġborders": 8084,
      "Ġbasis": 8085,
      "ouching": 8086,
      "Ġmould": 8087,
      "Ġtoss": 8088,
      "encies": 8089,
      "Ġharp": 8090,
      "Ġharsh": 8091,
      "Ġcrue": 8092,
      "Ġcous": 8093,
      "Ġcup": 8094,
      "Ġcords": 8095,
      "Ġcattle": 8096,
      "noy": 8097,
      "nobl": 8098,
      "Ġflat": 8099,
      "Ġfined": 8100,
      "Ġflex": 8101,
      "Ġfusile": 8102,
      "Ġpause": 8103,
      "itative": 8104,
      "orous": 8105,
      "Ġbetr": 8106,
      "Ġdar": 8107,
      "Ġdithyram": 8108,
      "icra": 8109,
      "icts": 8110,
      "arr": 8111,
      "left": 8112,
      "aster": 8113,
      "asks": 8114,
      "ĠIS": 8115,
      "Ġgates": 8116,
      "Ġgene": 8117,
      "sea": 8118,
      "Ġlate": 8119,
      "Ġlink": 8120,
      "impl": 8121,
      "imitation": 8122,
      "Ġwear": 8123,
      "Ġweep": 8124,
      "Ġweigh": 8125,
      "Ġoracles": 8126,
      "Ġham": 8127,
      "alt": 8128,
      "alian": 8129,
      "alene": 8130,
      "altogether": 8131,
      "Ġrect": 8132,
      "Ġrender": 8133,
      "Ġreign": 8134,
      "ifted": 8135,
      "ĠAst": 8136,
      "ĠAres": 8137,
      "ĠAcropolis": 8138,
      "stru": 8139,
      "stance": 8140,
      "Ġnut": 8141,
      "Ġnets": 8142,
      "ĠTethys": 8143,
      "idious": 8144,
      "idistant": 8145,
      "urred": 8146,
      "Ġmech": 8147,
      "chus": 8148,
      "chance": 8149,
      "hens": 8150,
      "rupter": 8151,
      "Ġwills": 8152,
      "peace": 8153,
      "people": 8154,
      "andom": 8155,
      "admon": 8156,
      "admitted": 8157,
      "esty": 8158,
      "quests": 8159,
      "ilars": 8160,
      "Ġsayings": 8161,
      "Ġstre": 8162,
      "Ġstable": 8163,
      "Ġsteal": 8164,
      "Ġconfer": 8165,
      "Ġconceptions": 8166,
      "Ġtherein": 8167,
      "Ġdeon": 8168,
      "Ġdeception": 8169,
      "Ġdecomposition": 8170,
      "Ġuser": 8171,
      "Ġali": 8172,
      "ĠSc": 8173,
      "ĠShe": 8174,
      "ĠSame": 8175,
      "emember": 8176,
      "eminent": 8177,
      "istratus": 8178,
      "Ġhasty": 8179,
      "indicate": 8180,
      "atered": 8181,
      "Ġliken": 8182,
      "mented": 8183,
      "olaus": 8184,
      "Ġunb": 8185,
      "Ġunc": 8186,
      "Ġunin": 8187,
      "Ġunwise": 8188,
      "Ġunnatural": 8189,
      "Ġuneducated": 8190,
      "Ġunacqu": 8191,
      "Ġunlawful": 8192,
      "Ġunwritten": 8193,
      "ĠCyrus": 8194,
      "Ġdisregard": 8195,
      "Ġdisappro": 8196,
      "arding": 8197,
      "acl": 8198,
      "acious": 8199,
      "acknowledge": 8200,
      "ĠHestia": 8201,
      "ĠHippo": 8202,
      "ofold": 8203,
      "aware": 8204,
      "Ġchose": 8205,
      "Ġchannels": 8206,
      "soever": 8207,
      "pless": 8208,
      "uneducated": 8209,
      "umes": 8210,
      "Ġpoison": 8211,
      "Ġpopul": 8212,
      "ocles": 8213,
      "Ġlets": 8214,
      "perceptions": 8215,
      "Ġlawless": 8216,
      "Ġthank": 8217,
      "Ġthanks": 8218,
      "agger": 8219,
      "Ġspec": 8220,
      "Ġspear": 8221,
      "Ġspeculation": 8222,
      "Ġrain": 8223,
      "Ġrho": 8224,
      "Ġprec": 8225,
      "Ġprem": 8226,
      "ĠPan": 8227,
      "ĠPar": 8228,
      "Ġplural": 8229,
      "Ġplacing": 8230,
      "ĠGreat": 8231,
      "avity": 8232,
      "Ġtwofold": 8233,
      "Ġintoler": 8234,
      "angular": 8235,
      "notion": 8236,
      "Ġloving": 8237,
      "uding": 8238,
      "Ġpert": 8239,
      "trouble": 8240,
      "ĠOb": 8241,
      "Ġenc": 8242,
      "Ġenchant": 8243,
      "tyr": 8244,
      "prehens": 8245,
      "ishments": 8246,
      "idea": 8247,
      "ĠMight": 8248,
      "ĠMuse": 8249,
      "ĠMartin": 8250,
      "Ġundertake": 8251,
      "Ġfeared": 8252,
      "aph": 8253,
      "apes": 8254,
      "Ġremed": 8255,
      "Ġremoved": 8256,
      "Ġdivisible": 8257,
      "Ġordains": 8258,
      "Ġclosed": 8259,
      "Ġoblong": 8260,
      "Ġruled": 8261,
      "Ġkindly": 8262,
      "Ġkindness": 8263,
      "exchange": 8264,
      "expedient": 8265,
      "izing": 8266,
      "Ġimpulse": 8267,
      "ĠDear": 8268,
      "intemper": 8269,
      "Ġintent": 8270,
      "Ġintend": 8271,
      "Ġintense": 8272,
      "Ġovertaken": 8273,
      "Ġcontention": 8274,
      "mankind": 8275,
      "Ġpaint": 8276,
      "Ġpainters": 8277,
      "Ġinstinct": 8278,
      "blame": 8279,
      "Ġende": 8280,
      "Ġendured": 8281,
      "Ġsubs": 8282,
      "Ġwished": 8283,
      "Ġthrice": 8284,
      "Ġthrows": 8285,
      "Ġattract": 8286,
      "Ġdiscredit": 8287,
      "standing": 8288,
      "Ġstrife": 8289,
      "Ġdisturbed": 8290,
      "Ġdistricts": 8291,
      "Ġsureties": 8292,
      "Ġassure": 8293,
      "Ġearthy": 8294,
      "Ġactive": 8295,
      "Ġcounsell": 8296,
      "Ġpurge": 8297,
      "Ġpurified": 8298,
      "liest": 8299,
      "suitable": 8300,
      "Ġspare": 8301,
      "prop": 8302,
      "Ġblue": 8303,
      "Ġterrors": 8304,
      "Ġviews": 8305,
      "Ġhandicra": 8306,
      "Ġcareless": 8307,
      "Ġcarefully": 8308,
      "Ġhonourably": 8309,
      "Ġworked": 8310,
      "Ġtempt": 8311,
      "Ġinterval": 8312,
      "Ġimagining": 8313,
      "Ġimaginary": 8314,
      "Ġprivile": 8315,
      "Ġcreative": 8316,
      "Ġseries": 8317,
      "lected": 8318,
      "Ġcorner": 8319,
      "Ġcorrupter": 8320,
      "Ġadvanced": 8321,
      "Ġwisely": 8322,
      "Ġretreat": 8323,
      "Ġtrivial": 8324,
      "Ġrefrain": 8325,
      "Ġpeo": 8326,
      "partly": 8327,
      "Ġeducate": 8328,
      "Ġflas": 8329,
      "Ġputs": 8330,
      "Ġroot": 8331,
      "Ġcountrymen": 8332,
      "Ġcaring": 8333,
      "disci": 8334,
      "Ġremembers": 8335,
      "Ġuntrue": 8336,
      "ceded": 8337,
      "Ġmuse": 8338,
      "Ġsimilarity": 8339,
      "Ġespecial": 8340,
      "Ġreputed": 8341,
      "Ġinsight": 8342,
      "Ġimitated": 8343,
      "Ġpersuas": 8344,
      "Ġpersuades": 8345,
      "archs": 8346,
      "Ġmischievous": 8347,
      "Ġinstructed": 8348,
      "Ġinstructions": 8349,
      "Ġdrag": 8350,
      "Ġpayment": 8351,
      "yrrh": 8352,
      "Ġfeels": 8353,
      "ritory": 8354,
      "MELES": 8355,
      "priests": 8356,
      "Ġpractises": 8357,
      "Ġpractising": 8358,
      "remaining": 8359,
      "Ġdecay": 8360,
      "ĠRemember": 8361,
      "Ġattains": 8362,
      "Ġlearnt": 8363,
      "useful": 8364,
      "ĠTham": 8365,
      "ĠThank": 8366,
      "Ġpublicly": 8367,
      "Ġapproves": 8368,
      "Ġappropri": 8369,
      "Ġrunner": 8370,
      "Ġdiscussing": 8371,
      "Ġservices": 8372,
      "Ġrealities": 8373,
      "Ġkingly": 8374,
      "Ġimpropriety": 8375,
      "Ġindividually": 8376,
      "Ġprobabilities": 8377,
      "Ġconviction": 8378,
      "goods": 8379,
      "speaker": 8380,
      "Ġcontrast": 8381,
      "Ġcontinued": 8382,
      "Ġprovision": 8383,
      "Ġcompels": 8384,
      "Ġirrit": 8385,
      "Ġbuying": 8386,
      "Ġviolation": 8387,
      "Ġmemor": 8388,
      "Ġsuperiority": 8389,
      "ĠArgos": 8390,
      "Ġdeclaring": 8391,
      "Ġdenies": 8392,
      "Ġdisput": 8393,
      "Ġdisputed": 8394,
      "Ġdisputation": 8395,
      "Ġdoubtful": 8396,
      "Ġdoubtless": 8397,
      "Ġwonderfully": 8398,
      "Ġgymnasia": 8399,
      "Ġhunters": 8400,
      "ortune": 8401,
      "generated": 8402,
      "halation": 8403,
      "Ġtransferred": 8404,
      "Ġtransparent": 8405,
      "Ġassignment": 8406,
      "earnest": 8407,
      "Ġremarkable": 8408,
      "divided": 8409,
      "Ġacquires": 8410,
      "ĠAlas": 8411,
      "Ġpresiding": 8412,
      "Ġexercised": 8413,
      "Ġdeserted": 8414,
      "Ġplays": 8415,
      "Ġaffecting": 8416,
      "ĠAgora": 8417,
      "Ġsentences": 8418,
      "Ġsentiments": 8419,
      "Ġfellows": 8420,
      "ĠWhile": 8421,
      "Ġrival": 8422,
      "Ġreading": 8423,
      "Ġpleasantest": 8424,
      "Ġveh": 8425,
      "instance": 8426,
      "instruction": 8427,
      "Ġhurry": 8428,
      "Ġdemi": 8429,
      "Ġcalcul": 8430,
      "ippus": 8431,
      "Ġnegation": 8432,
      "Ġpeaceful": 8433,
      "Ġbreaking": 8434,
      "Ġrevealed": 8435,
      "Ġchiefs": 8436,
      "business": 8437,
      "Ġenquired": 8438,
      "iodes": 8439,
      "opinions": 8440,
      "Ġstudied": 8441,
      "Ġdelights": 8442,
      "Ġgentlemen": 8443,
      "Ġbesee": 8444,
      "Ġoffended": 8445,
      "Ġmarriages": 8446,
      "simple": 8447,
      "Ġpastime": 8448,
      "followers": 8449,
      "Ġtrack": 8450,
      "animate": 8451,
      "animity": 8452,
      "Ġconnecting": 8453,
      "minds": 8454,
      "dder": 8455,
      "tribe": 8456,
      "Ġabsor": 8457,
      "creatures": 8458,
      "Ġduties": 8459,
      "refuted": 8460,
      "Ġsmoothness": 8461,
      "Ġselling": 8462,
      "began": 8463,
      "Ġsweetness": 8464,
      "Ġcontrolled": 8465,
      "Ġprophetic": 8466,
      "invent": 8467,
      "involuntarily": 8468,
      "involuntary": 8469,
      "investig": 8470,
      "ithmetician": 8471,
      "Ġphenomenon": 8472,
      "marrow": 8473,
      "purpose": 8474,
      "purposes": 8475,
      "Ġpatterns": 8476,
      "ĠUn": 8477,
      "ĠUpon": 8478,
      "Ġdevised": 8479,
      "Ġsituated": 8480,
      "ĠAmmon": 8481,
      "Ġneglects": 8482,
      "joined": 8483,
      "picious": 8484,
      "Ġcurse": 8485,
      "Ġpromised": 8486,
      "Ġgeometr": 8487,
      "centre": 8488,
      "Ġtender": 8489,
      "Ġmasses": 8490,
      "Ġtrusting": 8491,
      "appearance": 8492,
      "rodite": 8493,
      "ructure": 8494,
      "Ġliquef": 8495,
      "Ġliquids": 8496,
      "intelligent": 8497,
      "Ġsurrounds": 8498,
      "Ġsurrounded": 8499,
      "hands": 8500,
      "Ġenvied": 8501,
      "longer": 8502,
      "Ġreminding": 8503,
      "Ġescapes": 8504,
      "Ġmurders": 8505,
      "ĠChrist": 8506,
      "produced": 8507,
      "Ġsuggested": 8508,
      "factor": 8509,
      "falsehood": 8510,
      "happy": 8511,
      "sphere": 8512,
      "properly": 8513,
      "Ġmoral": 8514,
      "Ġdialectical": 8515,
      "Ġyields": 8516,
      "statesman": 8517,
      "Ġamusements": 8518,
      "appropriate": 8519,
      "courageous": 8520,
      "Ġboldly": 8521,
      "colours": 8522,
      "Ġmurdered": 8523,
      "Ġindicates": 8524,
      "Ġapprehend": 8525,
      "Ġcaptain": 8526,
      "Ġnourished": 8527,
      "Ġkinsman": 8528,
      "Ġresolution": 8529,
      "ĠĠĠĠ": 8530,
      "Ġcarpentering": 8531,
      "skill": 8532,
      "influence": 8533,
      "Ġcultivate": 8534,
      "Ġanalysis": 8535,
      "carry": 8536,
      "relates": 8537,
      "relative": 8538,
      "Ġburial": 8539,
      "Ġdigress": 8540,
      "seems": 8541,
      "Ġstruggle": 8542,
      "convicted": 8543,
      "Ġprospect": 8544,
      "Ġcontracts": 8545,
      "Ġsubdivision": 8546,
      "Ġconfidently": 8547,
      "Ġadmonition": 8548,
      "States": 8549,
      "family": 8550,
      "recollect": 8551,
      "Ġlusts": 8552,
      "Ġstadium": 8553,
      "Ġchastise": 8554,
      "Ġpenetrating": 8555,
      "master": 8556,
      "ĠXerxes": 8557,
      "Ġtopics": 8558,
      "admir": 8559,
      "Ġdespot": 8560,
      "movement": 8561,
      "Ġparticipate": 8562,
      "Ġsatisfactorily": 8563,
      "philosophers": 8564,
      "Ġurge": 8565,
      "Ġwidely": 8566,
      "Ġspinal": 8567,
      "Ġreplenished": 8568,
      "Ġsupplied": 8569,
      "Ġdependent": 8570,
      "Ġpredicate": 8571,
      "Ġenclosed": 8572,
      "Ġimprisonment": 8573,
      "Perhaps": 8574,
      "Pericles": 8575,
      "physician": 8576,
      "exhib": 8577,
      "Ġdrunken": 8578,
      "Ġvoid": 8579,
      "Ġvoices": 8580,
      "Ġmysterious": 8581,
      "superintend": 8582,
      "Ġopponents": 8583,
      "large": 8584,
      "multitude": 8585,
      "Ġpedestrian": 8586,
      "Ġpitied": 8587,
      "Ġstationary": 8588,
      "Ġdreadful": 8589,
      "impiety": 8590,
      "Ġdisguised": 8591,
      "Ġambition": 8592,
      "assigned": 8593,
      "Ġdemands": 8594,
      "Ġquarrels": 8595,
      "Ġsymmetry": 8596,
      "Ġprosperity": 8597,
      "break": 8598,
      "rasistratus": 8599,
      "reputation": 8600,
      "Ġdenser": 8601,
      "Ġreversed": 8602,
      "Ġaltar": 8603,
      "Ġfrequent": 8604,
      "sacrifices": 8605,
      "Ġrejoicing": 8606,
      "Ġdemonstration": 8607,
      "violence": 8608,
      "Ġgarden": 8609,
      "Ġkakia": 8610,
      "Ġconsecrated": 8611,
      "Ġmystery": 8612,
      "tradition": 8613,
      "Ġstrictly": 8614,
      "Ġsepulchre": 8615,
      "spirit": 8616,
      "witnesses": 8617,
      "acknowledged": 8618,
      "ĠPoly": 8619,
      "Ġcircumference": 8620,
      "Ġproductive": 8621,
      "Ġcriminal": 8622,
      "hurt": 8623,
      "Ġtroop": 8624,
      "Ġisolated": 8625,
      "Ġunseemly": 8626,
      "consequence": 8627,
      "profitable": 8628,
      "Ġphantastic": 8629,
      "Ġpropriety": 8630,
      "Ġhungry": 8631,
      "grandfather": 8632,
      "Ġenthusiasm": 8633,
      "Ġburden": 8634,
      "Ġthreads": 8635,
      "veloped": 8636,
      "Ġrebellious": 8637,
      "ĠAphrodite": 8638,
      "statement": 8639,
      "ymphs": 8640,
      "penalty": 8641,
      "velopment": 8642,
      "Ġreconciled": 8643,
      "Ġmetaphysical": 8644,
      "Ġtitle": 8645,
      "Ġathlet": 8646,
      "Ġcruel": 8647,
      "Ġunacquainted": 8648,
      "Ġintolerable": 8649,
      "MELESIAS": 8650,
      "Are": 8651,
      "Ach": 8652,
      "By": 8653,
      "Enough": 8654,
      "First": 8655,
      "Le": 8656,
      "Next": 8657,
      "Rep": 8658,
      "Some": 8659,
      "Solon": 8660,
      "bably": 8661,
      "cu": 8662,
      "cut": 8663,
      "ciful": 8664,
      "dancing": 8665,
      "ek": 8666,
      "erers": 8667,
      "ff": 8668,
      "fly": 8669,
      "fth": 8670,
      "fail": 8671,
      "fited": 8672,
      "favour": 8673,
      "gin": 8674,
      "gar": 8675,
      "gain": 8676,
      "gments": 8677,
      "giver": 8678,
      "grow": 8679,
      "hav": 8680,
      "high": 8681,
      "horse": 8682,
      "iary": 8683,
      "iery": 8684,
      "iors": 8685,
      "iplied": 8686,
      "jax": 8687,
      "kins": 8688,
      "laid": 8689,
      "lives": 8690,
      "lived": 8691,
      "mid": 8692,
      "mil": 8693,
      "maid": 8694,
      "mater": 8695,
      "mountains": 8696,
      "next": 8697,
      "oon": 8698,
      "opp": 8699,
      "past": 8700,
      "pains": 8701,
      "pasia": 8702,
      "rich": 8703,
      "rance": 8704,
      "rations": 8705,
      "rhapsod": 8706,
      "riment": 8707,
      "sa": 8708,
      "sus": 8709,
      "som": 8710,
      "sil": 8711,
      "sory": 8712,
      "sail": 8713,
      "sometimes": 8714,
      "sleep": 8715,
      "sorts": 8716,
      "test": 8717,
      "twe": 8718,
      "tily": 8719,
      "tanes": 8720,
      "uph": 8721,
      "venty": 8722,
      "wind": 8723,
      "wish": 8724,
      "walk": 8725,
      "wanted": 8726,
      "xication": 8727,
      "yd": 8728,
      "Ġverse": 8729,
      "Ġty": 8730,
      "Ġtie": 8731,
      "Ġtrem": 8732,
      "Ġtangible": 8733,
      "hea": 8734,
      "Ġaut": 8735,
      "Ġaub": 8736,
      "inf": 8737,
      "inces": 8738,
      "insol": 8739,
      "inister": 8740,
      "Ġoct": 8741,
      "Ġoil": 8742,
      "Ġocean": 8743,
      "Ġwag": 8744,
      "Ġwars": 8745,
      "Ġwily": 8746,
      "Ġwaking": 8747,
      "Ġwatered": 8748,
      "retain": 8749,
      "refer": 8750,
      "rection": 8751,
      "Ġsown": 8752,
      "Ġsets": 8753,
      "Ġsale": 8754,
      "Ġsaves": 8755,
      "ature": 8756,
      "isc": 8757,
      "isher": 8758,
      "isias": 8759,
      "isons": 8760,
      "erate": 8761,
      "Ġbull": 8762,
      "Ġborrow": 8763,
      "oubt": 8764,
      "Ġmerc": 8765,
      "onian": 8766,
      "onnes": 8767,
      "Ġthrew": 8768,
      "enge": 8769,
      "enact": 8770,
      "enquire": 8771,
      "encing": 8772,
      "Ġhit": 8773,
      "Ġhated": 8774,
      "llation": 8775,
      "llers": 8776,
      "anations": 8777,
      "Ġfame": 8778,
      "Ġfable": 8779,
      "Ġfash": 8780,
      "Ġfoul": 8781,
      "Ġfishing": 8782,
      "Ġfiction": 8783,
      "Ġfert": 8784,
      "Ġfiery": 8785,
      "Ġinact": 8786,
      "Ġinitiated": 8787,
      "Ġinexperience": 8788,
      "Ġinherent": 8789,
      "Ġinanimate": 8790,
      "Ġpest": 8791,
      "edd": 8792,
      "itig": 8793,
      "itute": 8794,
      "itality": 8795,
      "Ġbehave": 8796,
      "Ġbehaving": 8797,
      "Ġdon": 8798,
      "Ġdru": 8799,
      "Ġdress": 8800,
      "Ġdying": 8801,
      "icron": 8802,
      "arse": 8803,
      "arise": 8804,
      "argue": 8805,
      "ley": 8806,
      "Ġnovel": 8807,
      "usual": 8808,
      "Ġyellow": 8809,
      "veins": 8810,
      "Ġgro": 8811,
      "Ġgivers": 8812,
      "severe": 8813,
      "Ġlion": 8814,
      "Ġlame": 8815,
      "Ġlaz": 8816,
      "Ġlathe": 8817,
      "Ġluck": 8818,
      "Ġlapse": 8819,
      "imen": 8820,
      "image": 8821,
      "impart": 8822,
      "Ġweave": 8823,
      "Ġweels": 8824,
      "alter": 8825,
      "Ġaspect": 8826,
      "Ġaston": 8827,
      "Ġrein": 8828,
      "Ġrenow": 8829,
      "Ġrepose": 8830,
      "Ġrenew": 8831,
      "Ġrevenge": 8832,
      "entertain": 8833,
      "thirty": 8834,
      "Ġannoy": 8835,
      "ĠAe": 8836,
      "Ġnavel": 8837,
      "ĠTruth": 8838,
      "illing": 8839,
      "amber": 8840,
      "ammat": 8841,
      "urality": 8842,
      "Ġwholes": 8843,
      "termed": 8844,
      "riads": 8845,
      "eta": 8846,
      "eties": 8847,
      "etition": 8848,
      "Ġmeat": 8849,
      "chor": 8850,
      "Ġdoors": 8851,
      "Ġmanaging": 8852,
      "adulter": 8853,
      "usted": 8854,
      "estion": 8855,
      "estruct": 8856,
      "Ġmover": 8857,
      "ilty": 8858,
      "poet": 8859,
      "poverty": 8860,
      "Ġstart": 8861,
      "Ġstum": 8862,
      "Ġstated": 8863,
      "Ġsear": 8864,
      "Ġsequ": 8865,
      "Ġsection": 8866,
      "Ġseated": 8867,
      "Ġseventy": 8868,
      "Ġconge": 8869,
      "Ġconform": 8870,
      "Ġconceiving": 8871,
      "Ġdeb": 8872,
      "Ġdearest": 8873,
      "ulating": 8874,
      "told": 8875,
      "Ġalpha": 8876,
      "ĠSat": 8877,
      "ĠScythians": 8878,
      "employ": 8879,
      "Ġarmed": 8880,
      "Ġaristocracy": 8881,
      "Ġvap": 8882,
      "isted": 8883,
      "istible": 8884,
      "istration": 8885,
      "istinct": 8886,
      "isteme": 8887,
      "ĠTheuth": 8888,
      "Ġliked": 8889,
      "Ġproving": 8890,
      "Ġworn": 8891,
      "racies": 8892,
      "igner": 8893,
      "igma": 8894,
      "Ġuniting": 8895,
      "artific": 8896,
      "ously": 8897,
      "Ġcompose": 8898,
      "Ġcomposing": 8899,
      "Ġcompositions": 8900,
      "ĠCould": 8901,
      "elled": 8902,
      "Ġdissimilar": 8903,
      "Ġdisproportion": 8904,
      "Ġimposing": 8905,
      "acus": 8906,
      "Ġjum": 8907,
      "Ġjavel": 8908,
      "Ġagencies": 8909,
      "sole": 8910,
      "sold": 8911,
      "cied": 8912,
      "plan": 8913,
      "Ġsovere": 8914,
      "union": 8915,
      "bear": 8916,
      "Ġsomewhere": 8917,
      "inex": 8918,
      "perplex": 8919,
      "perpet": 8920,
      "Ġrising": 8921,
      "Ġpartners": 8922,
      "Ġtram": 8923,
      "leased": 8924,
      "leasure": 8925,
      "Ġpremed": 8926,
      "Ġprepar": 8927,
      "Ġwheat": 8928,
      "Ġarticles": 8929,
      "ĠPal": 8930,
      "ĠPry": 8931,
      "Ġadorn": 8932,
      "Ġpled": 8933,
      "Ġplant": 8934,
      "Ġplag": 8935,
      "ĠGo": 8936,
      "ĠGrote": 8937,
      "Ġtwisting": 8938,
      "Ġevent": 8939,
      "ĠNile": 8940,
      "ĠNymphs": 8941,
      "ppet": 8942,
      "Ġjustest": 8943,
      "ordinate": 8944,
      "Ġloose": 8945,
      "Ġloses": 8946,
      "Ġperished": 8947,
      "Ġperformed": 8948,
      "Ġaffl": 8949,
      "Ġprince": 8950,
      "leshy": 8951,
      "ounded": 8952,
      "Ġrightness": 8953,
      "weak": 8954,
      "wered": 8955,
      "Ġbetro": 8956,
      "prefer": 8957,
      "preser": 8958,
      "preserved": 8959,
      "ishable": 8960,
      "ensity": 8961,
      "ounted": 8962,
      "abet": 8963,
      "abled": 8964,
      "ĠLiby": 8965,
      "ĠMr": 8966,
      "ĠMet": 8967,
      "ĠMag": 8968,
      "Ġunderne": 8969,
      "Ġformation": 8970,
      "Ġremo": 8971,
      "Ġconsistency": 8972,
      "conceive": 8973,
      "converse": 8974,
      "Ġrugged": 8975,
      "excell": 8976,
      "exec": 8977,
      "Ġindestruct": 8978,
      "guilty": 8979,
      "shown": 8980,
      "showing": 8981,
      "claim": 8982,
      "ĠEach": 8983,
      "ĠErasistratus": 8984,
      "Ġimpud": 8985,
      "Ġcommence": 8986,
      "ĠHear": 8987,
      "Ġgenerate": 8988,
      "ĠDaedalus": 8989,
      "intended": 8990,
      "Ġordering": 8991,
      "comprehe": 8992,
      "Ġovertake": 8993,
      "Ġoverturn": 8994,
      "Ġbegat": 8995,
      "Ġbrutes": 8996,
      "Ġpersonal": 8997,
      "Ġhosp": 8998,
      "Ġendures": 8999,
      "Ġendowed": 9000,
      "Ġworlds": 9001,
      "Ġfollowers": 9002,
      "Ġresume": 9003,
      "near": 9004,
      "ultaneous": 9005,
      "Ġattach": 9006,
      "Ġattached": 9007,
      "Ġnaming": 9008,
      "Ġcomparing": 9009,
      "Ġstrang": 9010,
      "Ġstricken": 9011,
      "Ġdistr": 9012,
      "Ġdisturb": 9013,
      "Ġquestioner": 9014,
      "Ġearthqu": 9015,
      "Ġrestitution": 9016,
      "Ġrestoration": 9017,
      "Ġactors": 9018,
      "finities": 9019,
      "suited": 9020,
      "Ġequidistant": 9021,
      "ceivable": 9022,
      "Ġsport": 9023,
      "Ġblamed": 9024,
      "Ġblaming": 9025,
      "ignant": 9026,
      "condition": 9027,
      "conditions": 9028,
      "Ġsheep": 9029,
      "cribes": 9030,
      "Ġterr": 9031,
      "Ġterritory": 9032,
      "Ġamongst": 9033,
      "Ġhandle": 9034,
      "defe": 9035,
      "Ġworkmen": 9036,
      "means": 9037,
      "method": 9038,
      "Ġinvoke": 9039,
      "Ġoffers": 9040,
      "periors": 9041,
      "answered": 9042,
      "idedly": 9043,
      "Ġcharged": 9044,
      "Ġcreators": 9045,
      "Ġadvance": 9046,
      "Ġfounded": 9047,
      "wholly": 9048,
      "Ġretire": 9049,
      "Ġretort": 9050,
      "Ġexplanations": 9051,
      "Ġtriple": 9052,
      "Ġregarding": 9053,
      "Ġrefusing": 9054,
[...]
